// mlir-hlo-opt torch-fmnist-mhlo.mlir --hlo-canonicalize-scatter --legalize-mhlo-to-thlo --hlo-legalize-to-linalg --shape-simplification --linalg-fuse-elementwise-ops --scalarize -cse --canonicalize -o tmp.mlir

#map = affine_map<(d0, d1) -> (d0, d1)>
#map1 = affine_map<(d0, d1) -> (d1)>
module attributes {torch.debug_module_name = "NeuralNetwork"} {
  func.func @forward(%arg0: tensor<64x1x28x28xf32>) -> tensor<64x10xf32> {
    %cst = arith.constant dense<"0xB81F853D366A6BBD9F220F3CE10C6DBC403D9D3C4A64663DADF2DBBCD647683D526F813DD678B0BD7EBFDC3D4520B9BC5231983DD7CB65BDE36F6F3DFF47733B6F7B7DBB6C0421BD4442AD3B0CBBD7B91BF0823D2FEC8C3DC11A8E3CD723AC3D690430BC4F52133B4854893CBEAC293CE9BC343B970F91BDA4F403BEF691F0BD41CDE33D99E4393D088F3B3D8FAD683D835E163DF943C13D5E1A2BBDB3A828BD0CE01C3E9EA90CBE1482C13DB403DCBDCDF0D0BDABE585BD1FDE863DB0C8D5BDC4EB0ABC5D05D43D5EDCE73CE1774E3D5FF4533D9BD638BD5A52D33DBFB04CBB220343BD1CCB53BD698305BE5F6E80BDB48E0B3E3E64E4BD06C267BDB1691DBD6CA3DCBCD9107C3D1AB8A83D0B1171BD5CFB5A3D17888BBD3C3D52BD940B73BD5ED45A3D0A2A8E3D27D6FCBC2B64B2BCDB5791BDF4F351BCD921823D90B6003D0E8E513D1AE9EFBD1402903D040588BD0BA628BD48B69DBCF5EBA1BC3B291ABE31AD7D3D05E22D3E499AB8BB6792A6BDB23AAFBCC63378BC1281C23C587602BDFE499B3D7A67B4BDBF041BBCCB826ABD4EC5483DA7F7D1BD8B05E5BD06E649BDBFB978BD0A2E3F3BA7BD003DEDD9363DD54AFA3D69C1B03C790B943D9B3C463EE571713BFCD40A3E86EA07BCAF6F0EBED918333D7005CCBD660061BDB3BE0EBE5EE7DCBD37BEB7BD91AC8ABD5B7D193E02AACE3C017AA7BCFA45AB3C73D5E9BB2DF7F3BC182B8D3DBF6B9CBDB0951EBD56ED573D6589BB3C38C987BD02A0923DFB680CBD7D9BCEBDA994AC3C0FA6433D2A6B8CBD520425BD6ED0E0BCD392313D575777BDCDF49B3C886A92BD7BE85DBDA95D3B3C2846D8BCEB58ECBD5AB3D8BC87F3A3BB4933F43D0E4731BD2B31F9BC447F39390F6C0BBEB9CD85BD5C963D3EB38D29BDB502D13C39A62C3D76E1133CC9DB4CBC8AF38EBD4CBC9BBD2AD223BD8263013CD1710A3ECDA5C93D4CEE28BD64A34DBDC94D5ABB36B0FDBD9F189FBCC8BF793C5765B1BD9CE194BDC4E5ABBD7A33D63C68920A3EE64509BE83DEF43C65F3D6BD3303CF3DEC7D47BDE13998BB08855B3C27C4443DCBF682BD4E1B88BD5791EABC7DEC18BE588B113E187EDF3D15C7733D72A7DBBBEB740C3E4D5BDE3C3564F9BD9E510CBD3780C6BD41E4AEBD307EB03C17172EBD020459BAE0B196BDF35C413CBE2BDC3D13184DBDA17A9B3D7AD6223D41678E3D4A66E33C606558BC5971653C931D163E2470123B060EABBD8EF3093EDB34C2BCF7E859BD9DCC933C507DA7BDAF5D1C3DDFE51FBD8E7395BD13D1963C706B89BD2501CABCF5919ABDFF8E8F3D4051A03B16B58E3C277F73BDDC49C0BC2335EA3C03414CBD9B65093DFD17813A0D575FBBC6D96F3B67EF2B3E68D4753DA3CC90BD3BA4C73DB348383C0D9FB4BDD8F96DBD4A5C9FBDC8CAF7BD684039BDDFDF5EB9D39BE63CCC211E3E6106DDBD95D1163E07B29C3C42DD013E672F323D171DC33C43A5E6BDC9709E3DCD44EABCEDDC97BCAF3CE7BC690CE8BD93C2213D7B97BB3D727D3DBDE773023E5D49BCBD722EED3D7CB3D4BDC018923B519AD5BDB3B2023C23DCD8BB657CB5BD4B5300BD1F22A3BC63F479BC62C7623DB94A8DBD568C86BD9895A53DDA93153CB0E4053EF832AEBDDEB87EBD9871093E0815EC3DAD572A3C7F50653DD654F7BD8C6C693DDF3F95BD5553E6BDF26A88BD0E6FB4BD8ECC91BD5F29A83BFE043D3A91F783BDC8F615BC7796053D0254A03D969F0DBD2FBC8C3CD9B30A3EE1206A3DDF7B413DC697CB3DB594D83CDCC695BD45FC943D3E4629BC917401BE8D134BBC5B4AA93D52DCD1BC2E1DC43DC6C8013E2B47D73C72B048BD6F27253EC95EE2BD4DA49F3D332041BEF326E9BC718E82BCF94B90BDB0E617BC0CEA3E3CE63462BCDB0F163DC543B8BB64D9B23D3D6A153CADF622BE0E4EDE3C81DFBD3DF489D1BD0EB39ABC92DDA13DD2094F3DDF9E093EE7688F3D16D5B3BDCCC14F3D4A78833DDC72B13DDE1E823D7A78F93D8538D9BDE13C21BA2F271EBEEBB97BBBF2F74CBD934B6D3D2723EE3B73F9C6BD0A4FC2BD4562C43DACDBA23D992E5EBD904050BDDE1E55BDDEFFC7BCE25284BD3C7A96BD7C2164BDBA9CF53C47578E3DBD396EBD8D2A39BD72724D3D0F80473D52098EBBFCB4A4BD0BEB8ABD1DA30EBDC68B84BD8C9E1A3C31D2513D19F6BB3A5AE7D33C9AB521BDF92B6C3B02C9B8BDAF4F1B3ECA62C2BDED8DA33CCC7900BED0FAA63DA5DE41BC52D8E23DC6443FBD82EC1D3B211410BE5CF18CBD981B18BD46F7703DD2A2DD3D957141BD01CAEB3C0652163DDA0E09BBCCBC9D3C178DB5BC882E0F3E265D87BA1DAE743DB41B35BD1168A93D8DFBB6BD333CB1BD0FC1D9BB74E8013D90F39BBD50877CBCC9ECDB3DC13838BDC027823CCD769B3DA8BB31BC6D9D55BDBB6889BD9B9BFABD3A7EAABD7FB396BC0D87493D4EB2793C6F96D73B871C9A3D8664273CB6DD683DB38A95BDE69B2CBC7DDFDCBD4446F7BD211092BDB1BFA0BCC8B957BCCD50313D33A5CFBD71F51EBD2A62353E1184213EFB94E0BD448C9DBD3F2248BCEB27513D5319903C85BD6C3DE71E1ABD5743BC3D770CD33CDDB0843C83B310BDCFFFD2BDE999883DFB28A43DCF8E753A21728D3D80EB7B3DAE7037BDCA8FCBBD81D6EC3CF5808BBD7F35EE3D34E90C3CE14403BD0A1A00BE3EBACE3D582F25BC2846153EB15B923D32D2C93C848DBC3DB1745E3D0C608ABDF4E7EF3C53FB543D8FF0143C15B5593D37911D3C8B3ED6BDA2A71CBD93888D3D65000BBE546A13BE72A1203D655DD4BDDD9B903DC1FE2FBDA562233EF30079BD49D5823D8BE08FBDBB2E283DA6D98ABD8CECCABDA736BEBD225DF93D45A7C6BD0490B8BD01D3B2BD8CD98B3C42BF7D3D1BFD2B3CEAAA83BB0E402ABD1AE423BD4CFFDABC9542963D737175BD99A09ABD0C01443DB60ED53DAF83503E6087E4BC5139233DEA1502BE225FB2BDFC0468BD1AEFCF3D7124553D1034F7BDEBC0D73C2E7FACBD3BD3693D33C739BDF6C1C6BC54BFB5BC5E22853DA63399BD10909ABD7769CDBBAE44873DBA5C7C3DBC4CAE3D2CEDC7BD3B889B3D87C003BE73E9A63D85E13DBE14F79DBD666A713D58F8D1BD377D55BD0BB765BD519BE03D8BFBB7BD3D3C443CFD8900BDE6FFE23D8856A83C28BCA9BD4E03483D3E54413DB2B4B3BDC9A46E3D6941B43C9F6E1A3B829FD9BCC22D603D9CC084BD52DF18BD943C9939068A85BD3EB81C3EEC33A0BDCC86C23D5A70A7BD00918F3D523A00BE302481BDC56285BC61F327BDBD6B76BD352B3A3D88D40CBEAC3D313D87A31BBD02C8C4BA5935C5BD2B0298BCE3B956BD9896A7BCE3AF3BBD715DBBBB87E489BDC28B6F3CEB140C3DBF8E91BD9240B33D4162DABDB816B3BAEDCBA63D2C07F0BD33A32BBD7514AEBC0DD8533DB806BEBD24092EBD8CA3E0BD54EF003E86C3453D5038A1BD4278E6BD4454C13D81EA8D3C4A08C3BC65EE973DAA9F1D3B74EE3A3D839D1C3D93F0953D06A8AABDBC651F3A571F03BD799EC93DDE7CABBC25C5E8BD41E65C3D84CBB8BBE1D6CABD35B5B3BD996203BEC28DC5BDD659D2BDE2F4EFBB9287FCBD7478183EB0F593BDFEF0203EDC7281BD73385C3E8516C93C34CEECBD00F8943C9126F4BD3AFA953DBC9217BC3B88A83D404DB63D0539F7BD61A9053E7241A2BA8621353EEDF8A8BDB00722BD3016893D10DCE1BC3F8A93BD68F410BDC2D10CBD89DC7DBD3B26E9BD08771EBE6FCF4D3DE64BE0BD98807ABDF9810BBD1C3E513D7764843AF3AE133D59F1DD3D45461A3E6D6A0A3EB2A6F53CA70FA63D1EEA5ABDE5F52A3D190A823DF46EADBD33971EBD332D743DED66D3BD966B55BD8E06BFBD26E265BD493343BD1E11883DFA35553D44AFF33B22B4373E692B7E3D60C2E23CAB96893DE6CB2F3D8E874DBD7E56AB3D06E65B3DC470C9BBFBA88C3DF447023D91D9B8BC54D3E0BDD558EEBD29F78DBDC79FEEBD7D8393BDCBE6F13D215588BD841B533E7C53BE3BA33318BDE12611BDB917FEBB2C256ABCD1EBB23CA75A92BC218880BD02002C3D0117F5BB09C7B23CE273B2BD55730BBEC8BC333D050DA8BBE87E19BEB5F034BC1834CB3D41B629BCF394133ED749B3BDFED9E73D0C4F0B3E5F584EBD2790D0BDACCB023E1E34A1BD16DB26BC88CAAA3DF99FA6BBB71A02BDC0C772BD9AA0AF3B81810BBC18A93FBDC7353E3D29097A3C46590CBD648C86BD1C3616BDC92406BD85D092BB6DF2E43D6FFDDBBDEBBA753C9A1B89BDFC6DB83BF8D02BBCFBB78E3D0634A13C824731BD07F584BCDE8C513C9DA9223E4695293D92F6143D3C8DF6BB528FC9BB74AA74BDB3B0143D7535AFBDDA0102BEE9C884BD76F493BD18DBF5BC56E3493D15BA4CBDF7AC14BB3DA89DBD8851F8BC37D7F13B980E82BDB970843D2263B8BD3764593CD11A4A3DB124383BF70DB33DB54F88BDADC9A6BCF2D480BD7B4C133D46CD88BCFB6134BC67FF3D3DEEC0BFBC9202BEBD5B7A06BDFA3DB5BD03EC2D3E2165B3BDDFC3AFBD23DD023EB1913F3E4007EE3904E5E53D8E76573DC984233DE46D07BDE60B313B6D0D0ABE4C6191BCE66E29BC6561B33D90A9AE3CEA6F4E3CCC4FFFBC1CC8543D48AE893D4F617DBDB02130BD91E4673D4E5CC6BD6E8D253E4D92F13CE969A93DE370863CBF5CE3BBBDE7863CB69A38BD903CADBDC11FB9BD3E40FA3DD6FBD9BBE6CAABBDF57A813D59182DBDEE1EA7BDB0AB0FBD35B985BCCD633B3A0E65B6BD7BE991BD2DE8C6BB873E9DBD3CEEB4BD94CD8FBD2D16F43D658561BDC2050C3D9DA39B3D10CCF83C3760743D7700A3BDFB7F0EBEBD9AE03DA659313D9FEB383DC231B5BD6961463D1F7D82BDA78DA03D8DF70C3DCB8F8EBD7DC0D8BDD0AAB5BD0413C2BD1738C1BB5114DABC3B56D23D5A1B663D5AB9993D3A5F29BD5C699ABD15B88BBDC1A237BD8C70093DA786C23C5D71D73C4DEC373D32DD7D3D3B947ABB92D2A93C4051443E02FB8E3DDD08693DE5ABD8BD3ACC33BD6A271CBD2430D3BDBC5DB1BDEE1F09BD06E426BD6B69BFBDE556D1BCF6E8A1BCE72CDB3D600E82BC1EFB793D942B73BD0BF5A03DD4A1B2BD108DA53A9749203D624D71BD9FF6313DDA28443D0E126CBCE812823DCF7F683AB4177B3D965EEBBD0F48F43D05FD123E9C12723DE1861A3E355DFA3D44B12DBE54C31A3CC06A3BBEB732A9BD483C0EBE91305D3C236E6ABDF4E1A13D035D803CEC5C063EB42D78BDA87FAABB2C8E27BC47B41FBD6CC2BCBD77F4F53C3FD3C73DE70C8CBCC48F963DBCE60ABE4623DB3C415100BEF632133EF676BDBDBD09033E6185B0BCC50DF43D7EB625BE0040773D5095513D964381BD17DFB2BD110092BDA34792BD5F13133E11FAF83CDAD6B63CE407373C5A63A63D00347B3DB36762BC57B02F3C479904BDB352FD3A2D8AB7BD79CCF73DCC163F3D530489BDE95A943DAA49673DA75ABBBDAD2E8ABCB47D69BD0335B03D0AA41DBD430388BC369FAEBDA42961BD73692ABDF4E04C3D7D1EB63D3E5C983D1D59B2BDA008883D4164533DA48A633D812049BCAA4229BDFF05ACBDBE68193D360C1C3D5C60AC3DDE81623D498391BCAA6317BD6B5701BD7CDD88BD27D1743D1002E63CCB332B3D3F9EC0BDAAD254BD958573BD343F94BD6A3C7E3DE7BA1D3DDA614C3D2012953D6DFD9A3D56C4FF3D627187BDF60ED73D5DDAA2BD6719E4BD6ACC103D18E21C3D06F5A43CA0225DBC5C63843BBD12683D2696E0BB538BC1BCB9BACD3CAD8F913DE3555B3D8850D2BD5EE6F3BDFDF15CBD6DBA393CE99B123D1AA684BC602CD2BD601F9A3D807B7C3A7FF3B93D185820BE3D6526BC5D1612BD9FEFCEBD160AA53DF244013EC04A37BD5B6B043E3AFD6FBD95CA0F38DCC6A5BC23B1A2BDC5C8C5BD1A7F343D3918903DC8DD6DBDDAED4BBC7F5A143E6DC8C6BD36CB363EFCE7A73D4B3EDFBD894A2D3D0165AEBD3141B7BD7C7CA63D43AE04BDA01B80BD9DC9833DE3C0063D21B10FBEE86CD03DB40E733B1663003E46B28C3D543B71BD379E97BD0D1AC93DCC2FB5BD4F552FBB7CDE823D55C753BE90E8013EDB21EEBDDDC1E43D56907E3D6BB8D63D3ADAB03C38EB643E4BEA27BE2994633D0EE8A4BD69D03D3D12EF87BDFD9E8ABCD4443CBD2C23833D4804723DAFF01C3E7F66673D70DF0FBCD428983D12065FBDCABC71BD53C8AC3D08EF873D1363DBBBDB76013D04228F3DE884B1BD6D32E83CAC7792BDCB434DBD62910C3DBFA3C53DDD1903BD06DE7E3DDDF085BC60EA82BB7F5E913DE52B8B3BCD01C13BD617D13CFF9982BDC1EC91BD50D191BD95906E3D5B5C4EBD6504B7BCD26F82BDC3F5C83D6762943D2B04953D3FF33A3D0738EF3D142C3BBD76E7F63DF76D34BE2D2DABBD0F67C5BC9DEC9FBD6A58D1BD3443DF3C27F4C33D3A0ACE3D132D94BB3DF1C43DAC999EBDF581173EB3F321BE2214393D15C489BD5A1D5EBDC0CF08BD5BDD18BDD31FB23C4BDA6ABD6C55A03D36FA6FBD756B9BBD2DABA03D2648C3BDA882313E141C08BE6CC7E93C40F394BD2ECA663DA2A111BEB39615BDB2D114BEEC513ABD3F793BBDD4DDB1BD25F9833D27625ABC940674BDD628A23D6CB65CBD5967AEBD8ABA5EBDE25E753C8F09EF3D6DA5933D444D10BBD1A130BD0789A33DBDEF04BCD430E83CBB84D63C15DF3E3D3FD24ABDEA0893BD00BCF1BAB38681BD9F38EF3CE34A8CBCFD84623D064B343CD35E683D9E8EA4BBEB4A8D3DBD161CBE97A0683D030E40BD5CB7243C69D389BD547CB5BCC7C6C63DFF9E4F3E12DDDBBC8B30F5BD05ECE6BDB86080BDC4B39DBDCEE8B9BDB4D2153EA05E97BB7F264F3D1700043EAF5D7EBBB11C90BDA3C42DBD81FF5C3D9B50AB3D95B0EB3C53DE933C0B82E6BCAEEB623DCB72873D870FB5BD8325873D3B50603DF00404BCEE4551BDDD2600BD97E7923D921F9F3CE1C661BD0A3B52BD8B8FA53D405557BDA664DABD0377233D18DCE1BDB5E0AABDFC32BB3D1EF0F4BD87A0CDBB5DCD533E090CC23D11CF01BD8C67B7BD64D8AD3D22D0F8BD6AD540BDE15FC73D3E63D3BD2066A63DCB0B35BDDD1562BB1A99F4BDE74E67BD3C4B603DF6B3853D62DCFC3CB58A88BC07439B3D3E3112BD5E04F13D8E7C5CBD87F576BD19B2993D77E4D3BDDB330E3C836989BD72E5B43D25B0DABD17C7A9BD8BFC2EBDE75D9A3DE77A283D1A80633DDF939CBD5D9B9BBDC319533D10FA96BD531F983D082D7ABD2FF00A3BAF22143D"> : tensor<128x10xf32>
    %cst_0 = arith.constant 0.000000e+00 : f32
    %cst_1 = arith.constant 