node {
  name: "x"
  op: "Placeholder"
  attr {
    key: "dtype"
    value {
      type: DT_FLOAT
    }
  }
  attr {
    key: "shape"
    value {
      shape {
        dim {
          size: -1
        }
        dim {
          size: 28
        }
        dim {
          size: 28
        }
      }
    }
  }
}
node {
  name: "sequential/flatten/Const"
  op: "Const"
  attr {
    key: "dtype"
    value {
      type: DT_INT32
    }
  }
  attr {
    key: "value"
    value {
      tensor {
        dtype: DT_INT32
        tensor_shape {
          dim {
            size: 2
          }
        }
        tensor_content: "\377\377\377\377\020\003\000\000"
      }
    }
  }
}
node {
  name: "sequential/dense/MatMul/ReadVariableOp/resource"
  op: "Const"
  attr {
    key: "dtype"
    value {
      type: DT_FLOAT
    }
  }
  attr {
    key: "value"
    value {
      tensor {
        dtype: DT_FLOAT
        tensor_shape {
          dim {
            size: 784
          }
          dim {
            size: 128
          }
        }
        tensor_content: "\300\267\237;\216\230\327\274\233#o\275\004\017\024=\264\372N\275\362\022^=\r\371:\275$\202\022=\2128x=\'\210\221=\300\017\245;\000\344\004=\272\301d=\\\221\206\275\220\014t<P_-\2750*\205\274\360r\333\274\250\252\247<F\3342\275\200\274a\273\3455\240\275\227:\177\275\300)\347\273\3722\206\275<L\300<\322\033e\275Y\356\027\275\301\304\226\275\364\023,=\340\217\025\273A\216\020\275\357\347\202=\330\020\035\274\300\243\035<\216\347\t=\352\276l\275@\270\220\272\310\222\003=\356\363u=n\0017=\340\351.\275p\326\276\273\032\353B=\275\310\241=@w~<8\225\000\2759H\211=\246f\005\275v\"|=K\021\211\275\303\337H\275\216\034\017=\320\231\351;G\320\211=\270\356\037=\035\243\230=\220b\303\273H!b<p\371\031<\36060\274\277\253\227\275X\344s\274-\000<\275\026\2432=\205\024\213=<R\227<\223B,\275\234\266_\275\030f\322<\000<\352;\234+\217\275\340\350\301;\034\223\253\274\227l\205=#\350\035\275\261\334\234=\334f\r\275Pq\205\274\262\274P=\357G\226\275%\2729\275\340\311c\2755\373\244=\262\255]=\024\034\356\274*\255g=\245q&\275\2400\213<h(G<\340_S<D=\316<\360\030\270<\363\220\222=\355fD\275v\020y\275\360\367\320;\006\014\032=\014\027\205<\376t5=4\313\207<\032\223\005=k\346\212=\010A\022<HG\306<`R\t\273\264\310\236\275\325\005\204={#\203=\212B\334\274p\001\022=\315!\244=\244L\342<d\363\231\27567\025\275\032tN\275\321n\215\275\372\301\351\274{\323\223=\263!\216=\300\344\263<\346:X=\264e\352\274nNR=\032tM=n\302B=\320\265\276\273\363\365\214=\223\033\214=$f\376\274W\227\237=\266\"Y=\260\330\252;\370\324\025\275\356nY=\320\004;<~nv\275\200\003\007;`\325\037=Po\271;h\036\006\275\334\036\231\275\017\364\207\275\203]\241=-\306\234=pT \274\334\230[\275W\037\230=\372\244G=z\270>=\330W\026<\356K\230\275 7\315\274\267\336\204=\236\227e=i\036<\275\02749\275\026c\024=,\235\373<\326\347b=-\032\235\275\005U\236==\013\207=bf(\275\3161M=\370O\247<^\333\214\275\230\3550<\230\356%=m\220\006\275f\342s\275\340\'\205<\204\335\320<|u\326<\000\2711=\310\'@<\302Y\246\274\210\270\223<\\J\242<@\274D\274.w\237\274xu\001=\200\314\024\2748\223N<pn\207\275\372\226\037=V\020c\275\n\271x\275\006}1=\260E\006=\201p\237=\305J\220=(\327\021=\355\rk\275\362\255W=,\212\264<\266b[=\200\2650:GD\216=\010\306\026=t\367\376<\202\205{=\332k\231\275\022+o=\304H\220<\010h\016<@\031\276:pV]\275\246M\245\275\003!\206\275KQ\215\275\260\374)=CO+\275k\375q\275\333\277\211\275\373\317\201\275j\212K=\3607\266<\3001X; \032*\273\330\375f\274jio=(@=\275+(\236=\256\303s\275Z\367m\275\270\315+\274;\312\243=n\211\211\275\2662\222\275\330Q\343<\340\'\002\275\345\237\214\275\236\264{\275H8\214<\320\360\255;,\216\036\275<\034;\275\340\222h;\320\177p\274*\017P=\340f\r=V\303[=>:\032=\330\265\265<\241\205\233=\252\260[=0|\200\273\210\302\222\275b\034\025\275\362ln=\210]c\27504\370\273\000\"*\2711||\275\277\023\214=\300\265\315;x\201K\275\240\337[;L\347\021\2750\234\364<\311\215\225\275T\210\032=W\346\240\275\032\001\251\274\232\262X=\320v\214\273\275\004`\275:\022\022=p\331\256<8HL\274\270j\363<\331\2528\275\330gX\274\234|\276\274\031\3577\275\342\376\016=\364\300\324<\000L\210<\260\352\357<\037\020!\275\362\377,=EF_\275\232\360\220\275\242\373e=\2635\234\275\356Ia=\014*\232\275\326G\037=\366ua=2\221\231\275\211\'\212=\300G;\275\305\333:\275\200\263\':6g\213\275=Ik\275h\256\213\275f\231a=z\244\373\274p,H\274nJ\264\274\031\024\014\275\267\301\212=\270\257\006=\'\026\213\275\200\227\252<\314\251.=0\2477\274\205F\216\275\000\327\227\2730[\025\274\330$\345\274\022\301\037=\000\020\267\270\214\021\270<\237\225\232=\220\223\004<\013\265\205=H\211\251<\\\207\231\275)&\216=\211\221\245\275\200\002\346\272\214\277\251<\316\257b=\267\204\004\275\354\300\017=R\213\243\275\257\022&\2750\227\235;]\231\206=\370\267\020=\370\260\237<\014\366\231\275\241<\233=\022\222X\275\342\327\244\275\037\376,\275\250N\241\275|n\335<f\r\031=\222\271-\275\340\302\336<\334y\334<\000L\31490B\021\274\250\324\211\274P.\243\273\264R\333<\240_\373\273NO==\206bN=\254\242\277<\016\321d=\340\330\221\273\260M\367;$\3511=\301\024\243=\300\215\215\272\200\322G\274P\360k\274l\t\366<\rg(\275\200@\242;0\377\232;\235\035\231=L\347\367<\346\251\312\274|\001\252<v\221;==\006N\275Pi*\275pe\344;r\374\030=\200\002\243\272\204\276\227\275b\002U=\225\324\243\275HUQ\274\221\375\016\275\326s\241\275\333\367\245=g\036\237=}\330E\275_\312\232=\374\361\247<M\0134\275\244w\217\275\346k\217\275<\001\035=q\227&\275\370\177#\274\026\352\336\274\352\333q=Q\340\036\275H\302\\<S\257\223=\200\334\254<\033\202B\275\220\216\234\273Y\344\210\275D\345[\275\355\253\243\275FN\237\275\304\031\371\274T&\375<\274\020\265<l\312\267<\207\3657\275\203\316\027\275\034\020\346\274\010\306\r<\330\362<<\340n\031=.\254\332\274\004\336\371<\270\341\201<!\347W\275\202PE=\234@\024=\310\312h\274\232P$\275R\373\237\275\030\210\013<\373\n\213=\217\"\215=f\204e=\252:/\275\0063\024=\002}k=T:\202\275\016\372\002=\306\224^=\244\205\253<\013H\217=\321\372A\275\r\347\222\275\030@x\274\234\257\230<*j1=\0165P=DP\361\274x?\316<\000~\240;\207\'4\275&2F=\030i\000=\000\342\303<\264D\023\275\014/\244<\334\316\211\275\025l\245=$\036\302<\026{F=\220TJ\274f^\t=t\005\350<\014H\314<\314\254\030\275\tX\006\275\340w\242<P\352o<\304\365\004\275n\031\206\275w\200\224=O\346\025\275|\252.=\334\021\205\275\032\0149\275\206~==\022\302\312\274x\236\217\275*\0324\275\316\331\212\275OXA\275\343\307\213=\366\335e=\374\316\316\274\212JW=\\;\362<\236^Y=\214!\272<\027\003\215=\300(\230\273\360\354\220\274\205J\230\275\034;\035\275\247\222\225\275\021\3749\275Jt\353\274$\375\352<}\332\244\275E\336t\275\346^P=\300\344\372:\271\013\246=\020n\262\274\206\362\223\275\360\323\304\273\340\005V\274\200\013L:\361\307\240\275s\t\233=\364\365\204\274\223I\213=\340rK<NfC=\237&C\275\032\304$=;\3270\275`\224D;+\207\213=r\2214=@@h\274\340\030l\274\234L\230\275y3\222\275\013\020\036\275\270\264t\274\014O-=\037Y\026\275\000c\021:\340E\206\275x\340\216<\367c\225=\215\232\210=|\245\224\275\234\250\221\275\320\332\341;\033\212\230=A\275\230\275\300H\213;\330h\030<\360\222\327\273\322$g=\324\r\226\275\343A\212=\371\252\\\275R\261\214\275pf\241<V\025\177=\006\3261=HWC\274 \212\227;\202f\242\274E*\244=\013Y\217=\336\032\026\275\035h\224\275K\357\007\275\336ni=\2046j\275D\264$=6>z\2758\354$\274[\272\205\275\346\030\026=\200\214>:X\237\241<\260\354!\274|/\'=h\026\363<e\332\225=\334=\322<>:\020\275\250\2747\274\310]K\275\236\226\225\275>\242\005=Dj\220<0\363\250<\332QT=\245\030\020\275iX\245=h\034\235\275ox\245\275\370Lt\274\020\376\363<$\276D\275.\263i=\177H\223=V\2546=\360\013\007\275\200w]\274B\366\231\275Ds\264\274@d\006\274\322!D\2757\311\035\275q\220\014\275N\375r=@y\344\273\307\240\231=iV\227=\014\231\270\274}\315\210=X*\202\274\244\346\305\274\270\356J\275y8\230=\242u\214\275x\252\301<\3401(\274\024\222\367<\322\330\246\274`Qm<\250\277C\275\240\227\302\2736\0059=H1\367<n\350m\275<\024\231<\340\354n\275\270.T<\010\302$=\n\3313=\3065O\275\351\260\177\275\024Y\335<GI\232=\034-*=\020\223\235\275\311\334\221\2750*\330<T\215\016\275 \033\360;\376h\205\275tR\312<\300\234\000\273\346hd=`t{<.\014[=|\354\320\2741%\206=\325\242^\275z\003C=\3202\022=Y\\\236=\310K\227<\240\340\355<\026iQ=\350\364#=\371\035\206=\026\310\242\275\252\360q=$-\004=\230H\206\275\360\327\222<\016\275%==e\206=<t\223\275\200MN;\354\325 =\334\257\340\274j\254N=-\324\201=\020(\213<@\305\227:\270\036\'=\345\006\233=\367 \003\275\"\230\177\275\314\023\367<|\222\334<xa\003\275rEK=\032\347\026=dOW\275\007\275a\275)\311\226=\314\254\276< a\016\275\212\201f\275\2220f=\350]\241\275\034\340~\275\300\337\233:\226\275\\\2750d\267\273(X\206<\254f\036=\022\352I\275\310\266\223\274\274\225\230<\275\020\230\275\347\265\201\275Gs\004\275\240V\273;\320\272\314;\340\035\217\273ZN!=\336^\233\275\004{\312<\200\253\345\272x\031\005\274\204V\371<J\375\235\274\304\262\341<\177d\237\275}\253\232=\220\255\352<@ks<\346\372==XS\320\2740e\010<\275\305\222=ue\"\275\016\016\014\275t\353\352\274\014\357\222<\200\200\217;\205\340\232=\276\350\265\274\311\321\221=\200n\346;~\254\201\275\265\256\244=\270<\202<\212BX=\320\005\210\275\252(\202\275K\240\221=\307v\237=p3<<\216H(=\223\213\005\275R\032\326\274\312\004V=\252\227[=N8g=\276\006\221\275p\200\264;Y^\222\275\267\317Q\275\231:\242\275\020\024\207;\010P9<*5+\275\370\351\305\274B\373n=\rQ\017\275^|L= \036\"\273\013\376{\275\372[9= \017\216<,>E\275\006\332\013=Pj\025=\344Y\245\274b\005|\275\310B5<\014\274\007=\362\247Q=\275] \275u\242\223\275\222\027\202\275\350\274\020\274i\320 \275\340X\207\274\200\222\210\272\226\352@=\373\3712\275\034h\245\275^\223q=\330#\252\274\371\007\220=)\373\212\275&\371 =\232\225\375\274,\356\002=jJC=\234\245\350<@U\305\274l\240\t=\360ow\275\205\270\214\275\320e\225\273\206\335M=\254\317\237\275\254E3=s\376\242\275h/P<\270N@\274\240\204\006;4\305\221\275\374\361\037=`\3572;\000\214\230<\200\000\261\274X\222\245<\216B\245\275\317\250\214=\336J\372\2740\020\023\274m\341\235\275\000\251\336<\355\212\201=\222Z_\275\001\025\227=Py\"\274\272\351M=\250\032\351<\200\356\356:\000\020\373\274B\326D=\275\3255\275o-\223=\250\323\247\274z\0303\275-\007=\275\220\377\344\273TF\212\274\266gN=\212K\177\275\304\017\334\274\364\300\213\274\364\235\211< 3\321\273|\035\257\274`\013\215\275\324x\274<7\353\210=\240y\010\275A\036\214=\276\250o=\3425\245\274\365\273\232\275R\320X=@)\031<\014,\241\274\200\244%:*\351c=\274\211\222\275\030\n\034=\261\254\224=>\331\233\275\330|\335\274v\300U=\3078\217\275T\232\204<\370\301A\274\334\276\005=i\222\207=@\377\003=2\315\214\275\263\222<\275\274\256\014=\240C\222\273\320\324\260<PiP<N\002\003\275g\3570\275bk==^\354N=`\354\361\273\366bJ=?\n7\275\037\001\020\275l@\212<\340\344d\274\311\210C\275\277\307\030\275[\200\213=\376\016\306\274H\240\241<\310)G\274!+/\275\022##=\261Q\214=\033\214)\275\214\230\222\274\360\231\211\2744;\357<\354\307\260\274\316\320\216\275\020d\221;\200\250\352:pP\212<\3571\242=H\202\373<~\316A=_\256\214\275\223\266\200=2/)=\230wK\274\376\363P=\002az\275\202\002\237\274Tf\272<\370%s\274\360\365-\275b\000e=\212@?=\312\321O=\274\325\364\274^$\213\275y\220\236=\322\205\"\275P\323g<@\032l\2748\253 \275\304;&\275DK\272<`\273\'<\223\367\232=\240Q\211\274\207k\222=X\002\'=!\t\227\275\360\315\231\275#XJ\275\250\216\332<\264\027\307<XmN<j\311\025=\3659\227\275P\004\242;\336x`\275\355\257d\275\326?[=\250\315\305<x6\225\275y\337\201=\212X\227\275\230\007\007\274\222gn\275\020\221\347;\000H\034\275<0\222<\331\253\242=\256u&=\036\337\232\274\264R\002=\320s\205\275#\210\245=4\321\215\275\340\322\036;\350\275%=\"\201F=\303=\211=`\256\014=\203\237\213\275\234,=\275S\246\215=\316\302\231\275\250\004\303\274\205?c\275wP\005\275\362nx=\030\212\336\274\210P\324<x\3076< \306\215<\3515C\275?b\241\275y.\242=\304\2353=J \330\2748\235x<?\334\232=\264\236q\275\036\2354\275B\237/=\260<\234\273\342\201\260\274\300\221\244\274\240\212\323<\360\032\205\274>\005\\\2750\362\013<+\330\213\275H8\201\275X\361\032=\010e_\275d\260\353\274\336\222R\275v\330\233\275\336\276K=Z\266Z=@?\340\273&>v\275i&\207\275\021\213w\275\213\204F\275\277\304\241\275`\200\014;J\027c\275\316\272q\275\2207\203\275\266,=\275\233\336\210=xo\t<\234\301\265<\252>S=\336\351\324\274F\204k=\320\263\333\273:\260\022={\204\024\275\253\333\204\275\260\260\311\2740\312\207<\260\233b\274^D\241\275@\307\321\273t\336\272<\254\235*\275*\202S=\255\027\230=\373\016 \275\346\212g=\216~\301\274>\375$=I\203\204\275U\r\220=8\262\032\274\260c\026=+S\230=ZA\003=<\341\214\274\372[h=\350\254\035\274\310\035^<v\261<=\010\001\217<\344+\225<\000P\3507\330-S\274:\256;=l\\\262\274UgK\275h\322\244<$H\232\275/>\212=\300\311\334\272\226?\022=o\203\241=j\3009=v\262<=\220\352\234;,K3=\0074\211=KbB\275\354\216\032=\220\017|\275\330\252\t\2744\277\270<Bam\275\037\366\214=\3475\207=\224\032\230<cH\016\275\360\025\216\274\326?\027=\264p\232\275\315B\020\275\350\240\014<\020\341S\2758={\2744\327\225<V\330C=\t\250\025\275\240\'\034;\036\241\215\275\245\310\214=2P:=\016\003\353\274f\025\311\274B|?=\256\310\371\2742\214\313\274\201#\236=^\nb=\346\033L=\002\257\230\274\367I1\275^\237\027\275\335\213\227=\264\255\233\274\376\316k\2752\023N=\231H\225\275\353\213\207==\205\241=\236\035J\275\310\023Y\274\236nz=wL\221=i\r\033\275\204\"\230<<`\300<@\354\035<\316\037\325\274I;\216=\0144\007=\203\021\206=t\236\221\275.\3507=\320\324\341\273%\035\205=\300\3271<<\272,\275\203\237\231\275\210g\252<(U8\274\233\200\210=s\306g\275\002\370\343\274\177J\222=b\235\311\274x\325\266<`\326\026\274\006\237\005=pQd\274\2701\213\275\274\037\010\275j\246\256\274\030\267\032\274\302\317m=\350\371\033<\213\337\227=\364H\272<\300t\203<v\313 =\275\343\206\275\177\365\225=P\246\257<\342E\r=p\201\235<q\205\227\275=E\237\275\020\300\235\273\2238H\275s\315\231\275\000bm\274tj\216<\340\345\377<i$\203=\240$E\275\334%\342<\304\306\236\275Jgg\275\260\'\205\275\246\276\344\274\005a\210\275\301\353;\275\264-\223<^\335d=r!E=\260^1\275@\361e;\300\344\221\273:\325\036=0]\362\274\200\207\230\273O\204\240=\270\013\254<\3047:\2759x\200\275(O\270\274Z\361\204\275-l\232=~3_=\2767$=\310\030\023\274p\025\027\275\215\325\"\275Z\\)\275\240\023\221\274\370\236\030=\353\223\214\2750\210\013\274\200\311+<p\221\236\275\231_\226=\003\341\234=\355\372-\275\376n\217\275h\255{<\300\244\321\272\305\334\233=[2\227=\310\356\245\275\350Z\276<\200\375>;\033\344\203\2752C\202\275/\313\212= \253\310\273\224\345\007\275\010\213!<\252\223W\275H\033L<\030\177j\274M/\225=\021\017\225=\232\213@=\310\310\223\275\330\271\201<\300 \263;\204\351!=h;;<^\271;=@\216\314<\370\251\275<\326\332h=*\335j=2\320\370\274\002N$\275\271H\227=\016\252_\275\320\271\360<Z>\235\275\224\246o\275\300\3770=\350\035\240<\036\354\254\274\347\366l\275(G\206\275.U\322\274\272\375\r=\270\327`<\330O\303<\000t\266:\304\2033\275\240\250$=\314\314\265\274\326\243n\275`1\007<t\313\250<8\313\341<.\026n=\371`\242=,1\350\274\020\255\354;~\316\036\275r`\214\275- \205\275C\353\215=f\217y\275L~\312\274<\372\235\275\210&\302<8PL\2754\177\376<\255{\210=\260\010S\274\036>L=\\N\340<P\200\264\273\242\363.=\314w]\2753<k\275\233\314\223=J[z=:MI=:S\215\275;=\227=9P\203\275\027\271\201=0\354\221<8\"C\274\310\207\267\274\370\324p\274\356\203\017=b\210X=\377\374\203=F^L\275\200\230+:\375\321\241\275\035\342\215=\306\232\031=2\\.\275.\177]\275#\355\234=\212\256\030=\310\014\305<\'\270\205=&^\202\275\310\024\004\274\337.\024\275\360\t\231<\266\310x=\237\325\236=@9\232<\237\210\r\275\361\314K\275\320\251\224\275HS\370<KF\232\275\004X\304<\006t\236\275\250\265\014<\256Yj=&\247w\275\312?\022\275H+r\274@\206\007;\035\0333\275\337\321\220=\344.\333\274\376\025\006=\230\2573<\363[\215\275pR\247<S\025\241=\024\005\236<\\\342\245<R!\327\274\362V^=\244\363\207\275p\013\355\273\206r\326\274\234Z\205<$\243\242\274\256n>=4\013\215<\257C\227\275\363\211\215=\225$\204=5\325\202=\300\265\000\273\030\341i<\340\263q\274\2202\006=5\213\216=\250,\361<M\224\215\275^\231j=\320\307\352<}a\232\275 <\031<t\217\302\274\204\226\335<[\334\200=\320\257\364\274\010\323\260\274\n\020N=\2517V\275\220/;<\034\333\r\275\020~\340<\360\000>\275\256\\\210\275r\200\037=6\177)=P\344\224\274.\353L\275y\362n\275\254`\300<\334\307\251<f\035\341\274\224\003\312\274x\255\030<$\2332=\035\375;\275k\342\211=v\263E=\334m\013=|\374\211<ic\210=K\203\205\275Y\234\177\275\027\260\222\27547)=\355\240\241=b\001\243\275\316\230b=N\220)=\305\325\232=\027f\230\275\200\2255\275\3405b\274\022>9=\374g\341\274V\216)=\200\370o\275\332p-\275\240Q\333\273c\017 \275tv\331\274\3627b=0\207\215\273\345\"\207\275\"\246\013\275\230\010\013\275\034\301\255<\255\021\216=V\033w=\256+L=<\246s\275r\253K=\3504\245\275\014\001\370<\240\207\376;\300=\021;\200B\201:\260Q\344\273\"\226<=\'\025\221=Pn\034<\320\200+<\021sC\2751D/\275\240\235\031\274\202_N=\356\3019\275\025\201\205\275\310Dj<\276\013E\275s!\221=`t\334;\340\023\304;\352\342\027=:_\005\275\200\'A\272\340{\207\274\322{4=\020\200\255\273R\024:\275\004\234o\275\004]\211\274\202\030J\275\024<\332<n\275\300\274\200g9\272C\\\233\275\356<\216\275\235\373\224\275tY\244\275\240\317\250<\332\221\240\274\324{\233<1\313\202=\246\177S=\030\217\005<\365\230>\275\317\\\222=\004\261\211<\320\007\204\274\030\314M\274\020\340)\274Xn\231<F\330F=\"B\352\274\300\217\335:\304\334\266<\024\225\200\274\260(\236<\030\276N\275\211\330\204=\336\177$=FH\\=$\226\002=n\320\200\275M\3434\275Y\354\227=\006,}=7\364\206=H\351!<\232\323\225\275\230\354\210<\300\210\213\274\032\212u=\333w\241=\0106\261\274\310l\343<\013\224\031\275\016 \266\274P\312\333\273\322K\376\274\250O\210\274[B\202\275PQ*<\034\r\202<\200\263\\;0)\022<\352H#=\342\355\273\274]3\210=\324\314\332\274;\371$\275\220\305\356<\260*\203\275\276\245A=\020\001\004\274\000\016\247:\3460K=0\310\272<u\310\205=\247\225\205\275=JL\275=\204\226=\261v\002\275\030\305>\2740g\244\273\226\243y=\016\255:=[j\237=\300\231\332:(\252\014\274\007\317\204=\243 ?\275\300\236\022;\3702\230\275\360\204Y\275$\317\355<\000\355\177\273@\324\223\275\340\265\020;(\240\277<\206\214\013\275ZR\002=\245\337\207=0!\315;N#\350\274\200\235\333:n\300J=\201&\235=@\344\371:\215\232 \275\030\264\023<\327\242\213=\177\242\230\275 \342\002;\377\264V\275\224\266O\275\350\351#\274\322(h=\266\210m=\311\346\245=&\363(=\355\252\242=P\226\363<T\243\245=\271\006~\275F\211S=K\226\032\275\026\370X\275\370\201\216<\223\323\272<X\375\021<\212]z\275o\222\276\274V\260T=|\341\262<\201\260\231=\323\365V\275\377\321\304=\335\214\224=m\332\312\274\240\207\032;\310\371l\275h\231\026\275&Et=\240\315)=0#\370;@\"\212\275\270\262\357=j\327;=Y^r\275\022\324M<Pq\n<\371D\237=\006,\252\273\0049\306<\352\234\233<xy\014=\267\366\221=\260<\337;\262`\242=\026\271\214\275\006H}\275\000\374\024=\035\226\274=\020\032M\275C\265\244\275\324K6<\2521\202\275\227\013\206\275\250\037\350<}\275.\275`c+\273\215\226\033\275\205P\240\275\321\177\204=M\236\314<\313\035\363\275c\003\327=\232\004\201\2753\003\236\275h\322\013<\313\212\371<\202\302\t=\367[\374=\0053\366\274\020\204<\274\370\311\316\274\254O\220\275w\335\020\275-;\035\275\010\3018\275q\036\207=\200f\304=\000\021\225:\326\220\332;\344_\312<\3438A=@\251\205\274H\300@\2743\235\271=)\241}<\252z\341\273\272Ry\275rM7=\250\354\311\274\307\301\346<=\243;\275>\337\014=\224\263\254<\014\235\211\274\360\324\261=\266\321\000=\355%\231=\344\016j=.qj\275\nQ4=H\"\221\275\330H\310<H\221m<\306\234*=\300y\351<\373L\360=\300z\251\273\200;\023\274q{\314=\202\322\355\274\n\017\216\274\026\021\n\274\2108\214;\357v\221\274\370=,=\375\354\216=z\332\017={<\243=a<\035\275\366a\215\275\036\"\271=\020\203\255\274\035{ \275!\216\325;\320\360\016\275\3474\013\275<\025\303\275\272e^=p5V;\276\354\202;\261\n\266\275\221q\375<\202\033\003\275\210\010\t<\025^\326<eB\311=Q\306\316\275\307n\217\275\303.%=\305\301\236=\200\337)<]\261\251\275\306fb=\276F\237<\345\365]=\362\250#=J\020\245\274\003c\030\275\340\005r\273`\257\241=9\340\215\274x\t\233=\262\201S\275T\010\025=P\374\255\274\250\257\r\2748\320c<-+!=\310#~\274\244\375\333=\215\264\013=\221V\226=\206\250c=\270B\027\275\244>\275<hqS=\344\005\302=\346z\217=\350J3=\016\023\n\275\262\356[=\032\247\354=\240\337\213<\270\265\003\274`\221>=\267\020\371=wb\231\275?\346\227=\"\333\314\274%A\221\274\277\252\300\274\344P\260<\316c`=\320 \\\274i\254|\275*{$\275sK\234=l\226\216\275\210\377k\275n\370%=\320\2345=\346@\004\274]\230\213=t\336u=0\305\242\273\221\264\365<DF\036=\2215#\275\324PD\273\341~2=\352\220\244\275\347I\360\274\000s\317\271\200\360\346\272\036\377\237=K\373\224=\210\2622\275\320*q\275\342>\346<\240\214\021=\014\030\257\274\351\307\017=\233!\307=\343[Z\275\240\217\331;\305<]\275\376\263\006=\254\000\234=\246\310\326=H\021p\275H~\265<d\206\247=\314Z\316=H:O=\212\376\010\274a\024\020>\300\240)=ay\007\2758\014\221\274\026\325\244\275hF\005\274.\030\303\272\346\243c=\200\234\220=`9|\275\356b6=\207\\\236=\276\006\361\274\311\006Z\274\361<)=\353\340\332=\262A\204\274+\313\036\275\332!C=\275\3428=2I\344\274D/\272\275DS\210\274\320-\211<w|\226=\377\003\032=\353\326\320=\351v)\275B\247\200\275\005EU\275\'7\010\275H\260-=\251\353\n\274\0179\000\275\303@@=?\273\201= \200\337\273\245\330\274=vL4=\000\201\271\273n\257N=\322\335[=\253~\222=n\341\203\275\315\272\346<\2720H=\222\306\n=|\255\201=he0<~\321[=Fa7\275\260\342\320\273\350\271z<\020O6\275\332\024j=\242\2450\275 \014R;n\335\357=h(\246<\353\005\222\275\\\034\023<\007=1\275\366M:\275\t\323\200\275\205[\307<\370?\312<\256\017\231\275\213\354Z\275\250\351\275\275\3104\366=\317\3153\275\350\250\016=6\030!=6\354==[\256\235\275\003\3127\275\356e\243\274\326\244s\275\221\361\002>r\211\201\275\205\247\233=?\254\364=\312\212T\275\212g\215\274\331\334\223=\350\352\361\274\230B7\274\240\240+<_z\000\275\372\001Q\275,Z\310\272\334\010\263\274(;\231\275\270\377\303=6\337M=\014su\275\\\251\320\274\230v1\274\302\016/<\236(\006>t6\002=\020R\250\274\331\216\202=\340\223\223\274+\323\224=\234\215\231<:\367!\275+~A>\276\001}=\232\0328\275p\365\236<\320\322\002\275v?\256;\240\340\024;\330^\240\275\300\342\265<hV\242:K\013\204=\3540&=\004\323\016>\004\221\324=`\245\331<z\233J=\370=\000<\272\367\306=H\343e=\260\\P\274\255.\301=\254c\020>!K\232=\034\352\345\274\305f\010>\246;f=KRB\275}+(=\357s\231=`I\255\273\315|\240=N\226g=\311O@=*\3434=M4\334<\tl\247=\275\363U=0P\033<\003)\037\275\220\004\037<_{\001=\325\3261\275\347F\221\275\334\341\336<@&\355<\036j\300<\323\265\324=\251\315=\275\365\256\250\275\360\t\016\274\217\253\002\276\252\322=\275\3619\256\274\256\003E=>\325|<\021\\\030=\265\236\'\275\335r\037\275\350\242\004=\242\030 =\2270\203=\002I1=\340\314\263\273\2675\212=8K\033=n\311:\275H\032\351\274m\215\346<\364,\211\275\340l\205;\3439@\275u;\214<\r\327\237=\035j\245=.n\\\275\256\276q=RI\213\275}\325\245\275O\364a<\250N\023=\207\374j\275\017\262\032=\234\251\354<\236\177\257;\337\366\253\273p\332\240=\344\311\351<\006\030~=?:k\275Ay\264<\223\363\313<r\377\221=%ft\275\310E\243\273W\2233\275\034\377\266<\343q\214=h\320|\275\370\303\033=7iF\274\320\n\024\274\2426\024=\340\274h\275S\002\220\275\317\254\222\275\350\376\222\275\230[O\275\200:X\273\314\260\214\274`:\230\274\010\177\017\274\277\000m<\216\337D=\242\007W\275m\244;= g\004\274\326~\244\275C\341\244=\227\273\233=\023\007W\272J\346^\2730\225\227<\374\320\216\275\032G*;\353\"\244=Ca\212<\244#@\275\270q\372\2742\335C=\373-u\275\236\037\037\275\"\033\027=\020\263\212<\200u\307=\350?e<\334u\361\274J\215\221\274E\352J\275V\221\014=\320\311\"=`\251\"<{\226\n<\177\366S=\222\356\221\275\207K\211=l\271\354\274=\245\265\274\030*\014\274\223\334j\275\241R\237=\354l\244<\345\301\233=V\244\242\273\362k7=y]\225\275\3523\217\275@\210r\273xM\030=\203\"A\275\260\340\365\273H\261{\275\340\317F\275\305)7\272\t\315A\275\235\376\377\2745X%\275\365\365\231=\010gc\274h\334\366:p\033\204;\202s\305\274\232\361+=h\371l;\367oc;W\327N\275\221\347\204=\t\204Y\275\301\223\r\275\"\305\271\274\264\232\227\275i\366\375;\360\216\262;\n\r\227;\315\242\207;\304\363\373<rp\240\275\315nV=\260\204_\274\000^Q\2730\231\202\275\372\005<=\000(\340<\020{\005<=\2324\275\250\341\017\274R@m=~J9=\254\311*=,\250\303<\030\334r\274p\304\324<.W8=\226\213\007\275\257\377\203\275\016\217]=_\202\235=\004 \363\274\000\314\327\270,\026\365<\360\215G\275\241u\237=/5\207\275\201TF\2752\311\237\275@Gf\273\362oQ\275Z\363g=\220-\366<\000\332\010\273\360\203\374\273\216@b=\252\000:=\351\216\016\275\304\300\264<\334\322\234\275\240F\200;+\253\241=\300\355\242:\004,\312<4\256\022\275\337\003\204=\260\370\214\275 \212\212\273\345\252\243=zg\213\275\362\220p=\002\2006=\353b\214\275 \3234\273m \221=6\245[=\344\002\030=(\346\032=h\246\242\275\206\324X=\"\340L\275x\362G\274\313\356\001\275\314\003\217<\306^6=\224cy\275\007\305\002\275\320c\364\27490\201\275bu\236\275\367Ht\275\000\027\212\271\331\322~\275\250\223\210<hr\347<{=\200=\217;\221\275\030nA<d\343\'=\226\tR=\200@\310:\026\265\267\2740\316y\274(w\272<x\241v\275\035\222y\275\014na\275\030O!\274PG\265;\030#\253<\220\360\021\274\030\265[<\266\245e=RrD\275\032\243B=j\207/\275\322\310\037\275\365&\214=\202C\363\274\265\2573\275\236Rp\275\320\020\253<\357\032\014\275\242Yh=\340\211\004\273\210\350d\274\221\303\215\275\374@\207\274\333Y\245=*I\001\275}\315\227=\260\'\016<\215\325)\275\202)W=n\330)\275n\250L=\275\026f\275\267\244\226=\337X\227\275\356\332\325\274+\330\r\275\220s\214<qX\232=\005\003\237\275\344\232\t=P\000\237\274ZL~=\260\235\033\275\006\236\232\274p\221;\275]e\212=\340\024\234<}\013|\275j\272\263\274/\265\005\2758\233\003\275?\232\233=\246L\026=\007\214\237\275`\320N< \034#\273\310J\013\275\007\254\245=\375\273.\275(\2403=7\323\243=I\266\221=F\0018=L&\r=\000(\210\271\344\006\375\274\314\244\010=x&w\275\00637=\335\017\005\275\335h\204\275\322qw=\300\203\363\2723\t\212\275\305a\235=\271`\233=\344\241\213<|\302!=\000Ct\275<)x\275\264\247\036=0t\372\274Of\242=\013.\210=\2304P<\3534\205=\020\\\275<\022\332s=\345\346\212=\245\254\234=02j<b\207\006\275\215\362\210\275\244\274\'=r\247 =^\3272=\254O\307<\322ds\275&\351Q=`p\002<\342sr=Xw\201\274\344\237\243\275\334\343\217\275\234\232#\275\275\324t\275Vgh=0G[\274(:\034<\312\330==\212F\203\275\024\247\212\275\250$\237<\330\3461<\2127\035=\246P\027=PL\304\273\200E\264:\231\312\241=\260\305\033\274Q\032\200\275\356M(=\330J\002\274\301\037\017\275#J\243=l\020\262<\340\203=\273\300k\206\272\346p\225\275N\014 \275\274v\215\275\200\215/<\300(\234<X\303R<\350\344\261<\360E\256<\"\246=\275$\210\022\275\006\026\243\275\335\341\226\2755#\236\275\320>\265<\026\013\025=\224\344\021=#\347\021\275P7\222;PA5\274\200\277\235:\376\353\023=\320k@\275\230\333\327\274\010\035\013<\202v\346\274\314]\216\275\344m\252<L\342l\275\257I\236=\217I\210=F\236P\275\340\224\316\274\274\035\027=\330M\004=\340\206\014\274\007\237\233=>\210n=\304S\314\274\214\353p\275\22443=P*\366;\360\224Q<\234\276Z\275@\357\377\272\2266>=\013p\221=\036hh= \3706\273`\t\251<\351\226I\275P\316\313\273H\320^<\251*\220=\024\241\321<\356\214\204\275~\302-=@i\326:B\2535=\252\r\022\275@`\243;\250{\354\274.ye=\026\300 \275H\365\177<\234<\317<\212QS=p)\024=\006y|=8\021Q<a\217\204=Z\357G\275\304\351\213<\000\333\260\273\330\373N<\302*f=\026R:=h\277\"=\230\224\177\274\210J\337<\010\034q<dA\222<P\254\271;\024l\203\274\007\247\010\275\022\203+=\026MD=\326k\237\275\025@\231\275\200\321\262\272\267\350\233=\300\375\347\274\000V\t<\010\363\242<\274\024\264\274\016\343%=4\311\030=\256x[=*\354{=\372\334\003=\200\252|;\346\355s\275\204E\220\274{\177\210=\000\311\346\274\212\312\236\275V\247Q=\307\315\200=\360\254M<X\"\300<\310\273<\274`[\r\273\014+\235\274\000\217t<\366;z=\032\010#\275\314N\275\2746\225?\275\346\357j=\244$Z\275w\027\231=\202\272Y\275\342\2772\275\314\304\317\274\272\244\331\274B10\2750\350\375\273b=[=\364?\022\275\227)s\275\346>2\275\027\\?\275v\2568=\2707u<\014\306\353\274\n\275k=(\013\372<@\210N<\260\232\330\273\320\231\217;\022\243~=\035V\223=\212aF=0\334\207<\260\006O\275f?\226\275`\021\216;\371`\242\275\2105\"\274\305\276\240\275T\326\221\275\260\206@<\025A\225=\302`\252\274\370b<\274{\227\t\275\250)\220\275P\262\200<@\273;\275\340gG\273 V\332<\306\223*=\267j\232=z\220K=j\244{=\363\232f\275\000r\216:\035\r\233=)\212\235\275\276{M=*n2=\227\357\237=2\3037=n\004\274\274\270\014I\275\031J\201\275\020\272Y<\210>\203\275\232\361\n\275\242\344\230\275\020\3165<\020!\215\274X\334a<M$\211=\356\356=\2754\030\247<\242\203N=\240__\274\031d\230=&\210\212\275N\031@=\352\263k=\252\331t\2757\373\207=\006\354\024=q\366f\275\341\304\010\275\350\232\217<P\340\353\273z\302\034\275\330\334\006\274\245.\234=\340\363?\274 \300\317<D\353\357<\374\262\271<(N\211\275\325\273\214=\340\270\245<\303uq\275\317\035\035\275\200$\264<\000>\314:~#P\2752\254\341\274\276\304r=\177et\275@!\220\275v\310\231\275\300\305S\275\204e\205<`\374J\274D\376\263<~\255r\275\306\267z\275\275\017\207=@\361\204\275q\352\201\275\372\377\337\274\370\027\246\275\"\367T\275\"\253*\275\240\252\237\275\370\034n\274n\027\226\275\230f\347\274\303Fg\275*R\202\275 \010\005;\302\322\206\275\263H0\275g \200=/\321\242=~yT=y,\027\275\000\033g\272$\212\n=\271\233\217\275\300\234\333\274\264\333\217\274\341\211\243\275\020,\326;\210O\030<\210\327h<\313\307\031\275\357\215\206=P0\037\275\024\323\311<\241\364\235=\035\326\210\275o\000\221=<\361#\275O\344\232=<M\242\275\322\232z\275`\354\314<2\302\031\275\034\006\327<\033\\\244=\247<\010\275x\325\370<]\227u\275\\\337\242<=4\032\275\260\016\004<t9t\275\3211\200=\300\361\305\273\006\004\"=\000{\2339&\021Y\275\337\241\241=,\235\017=`\267\321<@\231\216<\2500|\275\200\342w:\230s\203\275\014\362c\275\000\335\2129\302\321I=\\\017&=\210\351y<\324b*=\332\247\321\274\230\200;\274\374\374%=\331w\227=L!\226<gQ\236=9\017\225=,\233\312\274\250\014>\275$\301\343<\314M\206\275\300\225k;s)\001\2753a\233=\246\277a=\n\245T=\200\261\306:\226\250\200\275@\225\204:w\272\221\275\206!\023=Z\274N=hsW\275p]\265<P\330^<\302\266\317\274,\276\346<\217>\230\275\010\214w\274\304\032(\275\251\004$\275\200\301B\273\270\177D\274h\306?\275\n\244\303\274\377\355\233=\030\264\255<\036\367\325\274\232\260\001\275@ \236\273\240\234\035\275:F7\275\356\327\243\275\214\036\302<\032\326\210\275\000\205\2469\221\267\237=\354J]\275\020\036\320<\354\221\231< \314\202\275\0307\t<*\021)=\200\307\355;4\336\257<v\205\237\274\034\025A\275\200X+<&:d=\312\333l\275\355\\`\275q\"\r\275\320\270\313<\370\367\356<j\236\267\274\000(\212;\225\005\245=\200Lb\273\323\213\233=_\006\212\275\2634\222=\240\021[;\026\247O\275\000\022Q\273L\033\203\275\017\227j\275\307\363\244\275\254O\212\275\336\336\322\274\n\220y=\n7)=\341u\202=X\n\226\274y\256\214\275\001(\235=`\256^<\3042\r\275\201\202\242\275~QU=;\003f\275@\0252<\310\006X\275:\255\304\274!M\n\275\210\322\343<\257\270\213=\353/\241\275\313\222\231=\366\201\023=\307\314@\275\220\003u\275\221\021\231\275\000\256f9t\035\353<\236\330R=\023\006J\275\273\240\030\275\337\246)\275\340\361 <P\227W\275\240>\244\275 {3=`x!<\367\272\020\275\237\361\236\275\000\222\3049\364\027\314\274\032\277\002=c7\220=\200\0148\273\240\211!\275\220\215\354\273\217G\215=\322\363z=?\315R\275?\330\214\275\342\263N=rf\032=\333\272\242\275p\366b\275\240\330\334\273\037\312\216=\310\235\376<R\031\240\275\230\261\223<\370\324w<\227_\215=o\001#\275\036M/=\202J{=\260\272\341;+\276{\275\320\316\207;\0364a=P\3301\275\025x\204=V]\022=\210\375\353<W\r\222=\327\245\230=\224\335\373\274\272\220\216\275X\246f\275\357\331\210=\000\227C\273\340\301\374;\326\343\000\275\270]/<\274AK\275\320\2756\274\211@J\275\206\032b=\314\325\270<0\016O<a\235\212\275\0217\217=\300,\311;\"h\177\275\320\000w\275\360\365\177\274lr\232<\\\206\203<p\355\255<\273\255\030\275\026\"\244\275\240L-\274\026\257W=6\205)=}\2227\275\234\014+\275H\"\220<4\207 =\004\3071\275\2104><!\\&\275\220\244\330\273\027b\237=^\2536=\002E\232\274\336\357_=yy\244\275\253\375\241=4\\E\275)\"\236=\200\024D\274v\233v=\000\376)\274\020]\251\273Z\326d\275\236\260O\275\374\030\315<\240\370\271<\030y&<\342\251H=8\214\034\274\024\244U\275\201a\033\275h\240:\274\304\2207\275\200\365\335:\0005\304\271D%R\275`o \274b\351\t=\000\203\177\275\311l\225=\374\267\245<\3165*=H\231d<\000\370\363\272\362\377^\2754\236\226\274V\202n\275\342\313\034=\230\342.=(\346,=\203\337\221=\242\3072=0\032\214;\207\225a\275\212\371\212\275\367\200\217\2752>\234\275\200\241\001:\\\274\204\275\300E\035\273:D\030\275\'V\225=w1\224\275\262m\037=\340\\n\274\300\326\351<\230\373\034\274hy\023=\336K\252\274\030\204\245\275\03192\275\267\311\201=\246\262I=\031W\242\275\212\322@=m;\214=\270h!\274\267\336{\275\022<G=\265\177\224=\000\021w\274\310\372\211\274\014\360,=\200Y\312\2735\356\027\275\366\375\336\274@\247\307\273w\211\214\275\220\225\236;n\323D=\330\020*\275\203\321\201\275\262\251]=\352\\%\275\026\235Y\275\262\027U\275j\031\202\275m\377&\275\022rx\275\324\r\316<\210\245j\274 \262\222\275,\307\234\275\020\216\327;~8l=\224\315\323<@\253\262\272\362\237:=\224i\302<#\277\223=xn7\274\367\330\240\275~\210\376\274\236\304H=\\\265\326\274\301\260\216=\013g\225=\001G\213=\365\222\202=\212[6=\023\370\202=\240=b;\326ha=g\r\244\275k*\235=\300=g<p<\215<\233}\033\275p\245[<\272\340\033=\r\033\202=\320\3152\275\013\354*\275f\361\006=d`C\275^l7=j\303\013\275\350\3220<\350\031\331<z\202\006=x\232\\\274\320\254\003\274=\213C\275\274\211\274\274P-\030\275\002d\007=p\234\255\273\301\341\234\275\240\245s\275\275b\216\275\270+\"<\014~\351\274\360Yx\275\035\253\213=\215H\200\275@T\325\272\370\231\212\275\213\2565\275\206C\233\275p\3065\274\244\344?\275\364\320\030\275\326\034G=\211iJ\275\230\306\231\274\224p\300\274\274w\304\274\366k3=\367\226\202\275\261\t+\275\254\236\227\274\020\306\214<f\2639=W&\242\275h4!\274\030\305><\375\221j\275\233\354\213=`\003\000\273\330\007\214\274\356\304\n=\000n\221\273\0262\177=\"D(=\240\353,\273IH\016\275j\220\016\275\266_\017\275*\311F=\356*\360\274b\021{\275\360,\203\275\2448\220\275\246#\372\274\320\341i<+#\222=H\2775<p\363\023=\327\361\204\275\372\304P=\264t\027=\256I\024=\252\204\222\275x\320\356<`\003\211\275\360\254\324;<2x\275mh\213=\024\227\330\274\200\257\201\272\200\001\031\274\262\006Z=&\251\247\274\200p\354\274HD\001\274\306\337\"=\270g/\2750v\243<s\317\243=\306+K=\014\271g\275\250\006\351<\3558\240\275\270s\371<\2601\305\273\243\362\207\275\340\316~\275}\272\245=h]\222\275\n\274\t=D\246\342<\026\212c=O<^\275l\307\312<\305t\030\275\030\250*<`\017\025\273\030\222<\274\303Za\275V\204W=\237\330\211=h\370\211\275\333\034\215\275\310V\033<\210>\205\275,9\211<\002_\020\275\010\316\"=-P=\275\240\206\311<\004\330\317<\010H%\275J3\237\274\221\212\210=\231\013=\275`\345\251\273\210d\352<\262:-=\260\345\020=\314\274N\275,\365\220\275\250\347\215\274\314\310\320\274\255\272\241=\252\352q=\356\253S=7\2531\275O\335\224\275oZ\244=x\336\036\275&~\023=\200\006\253<j\253\240\275\231X\221=\362\030w\275\304\374\245<\262; =\373\r\241=\321Pc\275\200\240\013;\200\357\032\275\026(.=\351a\212=\320\275\376\273.p7=K5E\275\262\025z=\200\275[;\251\366\232=\032m\202\275 \006\266\273S\250\206\275\200L%\274`0R\275\240\212\212;\030\002\360<j\026r=\376\305\217\275\220\204\233\273\232A%\275,\253M\275\242#\242\275 \231o\274\262[\367\274\334\376\333<\355\346\225=p\271l\275+\365\203=`\253\027=\213\357\214=\302\264E\275\344:\230<\372\313\225\275\246+#=\213\250\211=\340\017a\275(f\215\275\300\034\370\272\323w\234\275|\236\200<o\346z\2752\364-=\004f =\016\327X=8\"\365\274>\215\202\275\200\276\261\272v\013\245\274nx\023=\000\233\020<\206\036P\275pI\253\273\316\233\300\274\226\204;=RW7=\232\341U=DiI\275n\263y=\210\026\332\274\0032x\275\000\0175:\313\373\240\275\342\231k\275&p\205\275rG\030=\000\177\356:\302\006\027\275\354\313\312<\352\031S\275X,q<[\324\242\275\300\263^\273o\322\234=\357w\243=H:9<N\267D=\031a\222=l\376\207<3\342w\275(\270 \275\263\007\220=L^\254\274N\360|=\275+\221=\264Y\375\274H\275\225\274\3366\026=\301\377\217\275\212\004\231\2740{\337<\230_q<\217\005\201=\242)H=\337\331\233\275~\2104=j\367M\275b\\/=\026\3754=l\273\031\275\027\026\224=\006\3360=\231?m\275\260fu<\343Z\245==\335J\275\035\307\200=\177y\021\275`_\001\274\340\206\302;\"\333\330\274\332\266\242\274\340\201\371\273\020\031\010=p\'\374<\334\271\265\274~}\243\274\356\260\235\275B\034*=JbD=\2013=\275\375e\210=^M\200\275\326\361{=\220\322\351\273\000\200\0039 \227|\273\272\000\244\274\266\027\002\275\256\006\324\274[\036\245=\r\322\202=e\337\223=\204\001\266<\352\222b\275H0h<x\202\200\274\200<\352;Z\354\203\275\360\006U<\374d\014\275hRD\275&\025K=@;\241\274V*\227\275Nu\317\274\000}\2719\\\215\222\274\200[\246\273P\232\347\273\200\365\031\272\3066\311\274\202\300[=\036t\202\275\320<\034<P\032\322;\000\177\226\275\275\301\240=\242K\275\274\363\201\224=wR\205=\"D]=\200o\304<\000\376<\272\320\246k<\210\251\330<\000\031\265:d=\217\275\341k\224=\212\322\013=D+\034\275`GF;\372\335\031\275\216M\371\274\266\202i=\240\245,\274\256\301\005=H%\207\274t+\222<\245\222\233\275`\014\210<\356E\271\274\331\n\233=\344\014\'\275\316\262<=\370J0=\000\313q\274\320:\270;\274T\204\274\266\273\026\275,\333\322<\274\261\360<<(,\2758u\225<\260\315C<@\355A;N\337e=O\242I\275v\2611\275\316\306\267\274\372s\342\274\320\304\310<4\344\326<FoT=\307K\237\275?r\245=\255\256\227\275\272\300X\275\252dX=H)\034=\316[L=08\235\274k8\020\275tg\341<`\023x;\212\264P=\351\027\230=E6\200=r\265e=y\352\245\275\256\3346\275\016\032^=\322\217U\275\006Bd=\343\265\206=\230\250\272<\202O\244\275\312Jm\275\000\235\226\271\202\021|=>\366V=\353LP\275\261\321\206=\325S\233=Y\313\206=P\313\336<P\335\321;P\301m\274\305B\245\275\240/x\273\240\275\274;&d9\275\207-\201=\231\361F\275\273V\245=(^_\275\300\363\200;\272\243:=\200_~\272\326\331\271\274\337`\213=\220v4<\207*\244=$1\237<\202\265\236\275\240\216\317\273\254\013\365\274\270\363(=\210\272d\275\231Q\217=\000\331C:\330\267E\274\020\231\214\273>\010F\275\315;\212=\247\367\237=\3226\370\274\3148\000=\2400$=\370\331\225\275P\346}<\2457\241=\335_\206\275\307:\217=\230\233l\275\327XW\275\002\376\\\275\200\350\357<8vS\275\322A\372\274\261<\232\275t\325\261\274\000g\307;\266\026\310\274\023@\200=\t\212\214=\361\027\225\275\312\013\226\275L\346[\275\020\275\000< \216\002\273-\221q\275T\013\301<\214\242\333<\340X\235<\033\273\212\275\274\'\242<\354-\216\275\031o\220\275\2720{=>\367\335\274\246\365\240\275{p\211=\300\227<\275\376g?=0\213\"<\250\206\210\275\0027]=j\246\256\274\'\023\200=\314O\005=\354\013~\275\336\240\276\274%g\230\275\350\351Y\274\323\303w\275,\325\215<\025\300\201=\000\230{\274(~\252\274\206\323{=\327\306\226=\'\321\227=\332\362~=f\321\371\274\211d\220=t\315\213\275\267jy\275\340d\351\273F\326Z\275\030\357v<pJs\275\336\362\036=`\305\023\274\322b\"=\216=Y\275`H,\275`\r\355<\272\350\035=W\252\235\275^\202!\275hd\000<\336\005\337\274\351\361\224=\242\245!=\3163\203\275\035\215l\275~\333P=\023\310\222=\230\027p<\354\332\330<\264\347\030=\301\034\241\275\273W\232=\356\355j=\335\204)\275\360\013\217\274\223\214\207=\363W\242\275\030\007\034=~\220\006=\254\354\300\274\000\000\020\274l\033\277\274FD\235\275\340\361\200\274\236\233a=\250\203\251<S\034\242\275N%V=h\300\204\274\324\004\205\275\220\304\301\273X\247\032\274 SH<\372Kd=\240\222!\273\230\223\312<\244A\327\274f\324B=xP\231\275\334\253\301<2^0=[\341\212=\220\373\004=V]!=q$\201=0B\267\274\255\240\242\275\260*\320;^q4=\316\263}=pT\006\274\344\201\244<\300\352l\273\340=\222\275K\256f\275\246w{=`G\000\274\263\016\235=\300\014\251;\034f\375<\210\033a\274\243.\201=`\340\016;\260F[\274@Y\275\273\350\306$<XE5\275\272\346\374\274\2308\027<\330\216\271<\252\213\021=\234\247\031=\000^\035<\260S\021<0\332\241\275d(K\275r\213\233\275\205#\207=@\205z<\0014\206=S(\241=\340\321\034;\032\343v=p\242J\274\304\356\201<W[\033\275xEo\275\306\324!\275\330\350v\275`C\257;]R\231\275y\267\213=\223n\204=?\254\233=P\265/\274\240o^\273\3502$<\0008&\273\206\2146=\312\337\254\274\3242\225\275\024\317>\275p\307\332\273&v\006=\343\326\220\275F\3758=\274\340\366\274w;\226=\000L\\\2738e_<$z\033\275\337D\202\275\306\352U=A+\221=S\300\212\275\014?\260\274\006Q\203\275\251\264\225=WhU\275\352\337M\275\306\2725=\320\013\225\274\004\034\221\275x\017\017=(d\035\274\n\313\211\275\266\3279=\330%4\274\000\033\007:C\005\241\275\250\267\276\274\020\316\226\274\363B<\275P\354\324\273\212\216j\275<\263\376<i\236\226\275\'x\245=\034B%\275\210\266:\274\344*\204<\316\002M=H\350e\274\262\300^=\214\200_\2758U\330\274\206\\$=\323\363[\275\264/1\275\210\360\275\274\014\361%=\0321f\275\000P\371\271\2728W=\317\335\206=\227A\003\275\210m\034\275:\336%=\022\007\201\275[\215\241\275\000\3565\271H_9<\023\203\013\275G\217\227\275r\233`=V\305g\275\232\311e\275\316\200\354\274\\k\205<\372\236w=\320t\335\274\304\000\300<UV\217=\272^\352\2742\002q=\307\315\206=@\2020\275\002\221\026=\372\rj=\260!\270\274p\003)<u[\201=`\355k\274\320N>\2740\'\226\275\3565\303\274\240\262(\275\354\n\253<K\337\227\275\324\202\372<^\277b\275\000\241\271;\313\335K\275+\235k\275\352\234B=\254\346\275<\3703\"\274\300\270\256<Vq>\275\303\220z\2750\223\320\2734>\214\275\020\022\002\274\000\245q:(\330\336<\232\030\014=\230m\221\275\3407\266;\010\3268<\226:c=\273\274\005\275\007\274\227=\330\321~<X\231\010=\000\246\002\274\270\270\237<\023R\221=\241\311\236=\202o\266\274\231\372\237=\230\214 <\253\332\200=\312)K=J\004[=\314\266*= R\333<<\324*=@6\205:\030y\007\275r\277e\275\014\246\233<\324?\354<@i\230<0\004\034=Rk\330\274:\2437=\340\2122=\361\3757\275\311\302\244\275\000eA;\302\202W=\323g\214=\3400#;\215\353\236\275\356\311;\275\312;?=\326\237\224\275\034v\322\274@\r\370\272\025\327\031\275~|S=\002\267W=\360m~<\350P\035=P]\347\273\312@\017=\352\367:=v\004\032\275A\377\231=PO\367;L\363\354<O\353\220=pwF<\226\240T\275\317f\233=pJ\262\273\367\177\201=\334\360\275\274Xc.\274z\363\250\274\246\217\217\275Z\321Z=\220\262q\274p\tc\275\033j\207=x\277\036\274|\202\317<\270b\202\275\255t$\275\262\025~=h#\254<`\202L<\200B\365<\340\272\366;7\275\205\275\014Z \275@S\363\273\214\343<\275\034\201\232\275\330e\001\274\331J\036\275\355_\227=\300\021\244\275\316\323\014=&\266\274\274\334\270\237\27571\217=\226{q=h\273\316<\326\311j\275\016\036^=\360\230\031\274\030\3061\274\303\310@\275$\252\256\274\214\336!=\344\220\033\275\211\346\222\275\267\022\222=\324A4\275\245N\231\275\334\250\200\275\274\326\210<r\360|\275{7\243= W*\273\316s`=x\220\222<5S\216=\026\377\\=\327\270\235\275\021\241\232\275\330\352\214\274T\347\267\274\356\252\024=\034e\336<\234\272\312\274`\305\227<\254\221\237<L\375\347<\036]0=\3001\255\274`2\254;\264q,=(\360\260\274\330\022@\274\352\3541=\326\212`\275\3122\223\275\207:\231\275\224\024\250<`\227\210\275\356\213\016=@\266p<\340\256M<\237\362\201=@\302\242\273\020\341\241;7J/\275u\367\r\275B\251m=\300\353\363;8\243\301<K5\243\275\244?\356<_\\0\275\346#\207\275\274\370\336<\200K\017\273\002\371d\2750mn\275<\013\226<\276j\320\274\253u\211\275\226s|=~\354\304\274\017K\210\275\342\331\001=\n\313\271\274t\321\324\274tZ\312<\224\302\221<\002\211T=\036+T=\020\t\313\273\300n\252;\304\240\264\274\222\376\272\2748(\237\275\032\335\265\274vy/=(\256\364<\010\331\013\275\010\211\031=\222\031\317\274[~\231=\214.\214< \022\351<\356\300\277\274\0260t=\366\327^\275\250\316\332<\275\324[\275P9*=\000\332\010;\000[^<H\227\030\275\331g\"\275(2\273<\001n\200\275\271\375\024\275\374\351\204<\034\303}\275\272\257\032=\240\2554<\024\334{\275\255&\227=X\212O\274\360g\240;0\334|<\0009,\272b\256y\275bR<=\256\373\\\275\361\237\214=5\212\211=\3266%\275t\334y\275\3462,\275p\241/<P8\221;\010uD<\376\334b=y\006\205\275L\035/==9\202=\200K\355\274\026a\224\275\234h\253<\300[\253\274\360\327y<T#\241<\356:{\275\200\202\033\274\242\243\007=\200x0:ZH\035=L\014\356<XA\366<\004xn\275\343\277\240=ZV\217\275H\010<<\264O\232\275\245~1\275\240\314\201<C\320\226\275\000\262.\271\0103\315<\223\024\217=\020\272\307;@#\232\273P\032&=5=\237=\332\006\313\274\177\204L\275|\233\247<^|\327\274rZt\275\340\355\274<@\001\316<\264\021\366<e\177\206=\375\031G\275^to=#\266\237=\341\3410\275\254\261\001=nE\224\275\244E-\2758\365\376\274y]\034\275\236\006x=\3604\305\273\300w\030\275\r\331\241=\274\311G\275\264\261\270<\000\253\311<\300P\200\275<D3=OHD\275z\224d=@k\020;\262\004\\=5\374\222=\267\330\222\275:kB=\2759\227=Z\006)=\320\350b<\001\261\201=\334\354\263<\3668/\275\240\027\341;hx\241\274\274t=\275\2513\245\275\334\001g\275\362\222\016=\276Y\007=@\357\245\275\230\201\307<<\363\311<H\257\241\274\201{\241\275\224\230\274\274\324\345\206\275\032\324z=s\t\004\275\250n,\275[n\005\275\021vF\275u\214\205\275\354\301\r=\000\215\251\271\337\253\235=@\254\023<\260\311)\275\262\303 =p\004f<E)I\275\276y\205\275hz\243\274r\254\241\274\\\304\227\274r\344<=o\267\212=`\031\316<T\313\221\274\214n\234\274(\031\020<\370\210\220\274\204*R\275\337\376\221=\250@#\275\206\310h\275b\272\r\275|\007\337<`\331X\274\221\005\242=h\242\271<wq\201\275\224\374\351<\30193\275ht\225\275`\201\226\274\335\371~\275\224\310\316\274`\357\024<\216\333e=\307m\205\275\301r\212=\\\206\216<\262\246V=\240\347\034=\200\0036<\004f\217\274nc\"=x\247\212<\006\237\330\274\3501W\274\211\246\203=\362\325}=\355S\215=\330O\021\275\242\322\213\275\031\337\223=\360\2569\274p\214\211;\342zd=\261\341\206\275\006 \036\275+J\203=F\335\245\275\367h\231\275\372i\"\275L\306,=2\277~=9\313\234=\300D\377\274\357\032\205=\377L\212=\260\277\263<\210\233\246<\331\263\205=VQ[=\225\021A\275\265!\205\275n\3349=\300\224\330\272\022w!=\353e\014\275\372\301\026\275\302\353\261\274\244\337\376\274|\347\275<@)\362;\273\177\023\275\351\271\205=\3242\n=\213\330\242=`\327s<Bb\331\274P\350\307\273\344\340\346<r^U=V:a=\344\323\211\2748\274\014=)j\177\275\352\005_=\347{\225=\t\021\217=$<\354<t\024\212<\326\203\r\275\2608\314;\240\"\273<2\300\320\274\030\366\177<\354\"\210<;\317\021\275^~:=\324L\250<\240\223\354<\302BQ=\365\231\224\275\374\335\216\275b\245/=\314\004\221\275\021\203u\275\243\026\"\275\341fu\275\254\272Y\275mV>\275\271>\001\275vqp=t2\272<\006\315\022=\232\3524\275\272\310o=\370\337Z\275p\234\022\275\372-F\275\362K3=\207O\242=\360$\343;\351W\227=\230-6<\005.?\275Z\325\006\275\340\276R\274>\363\362\274\300\022\374\274)\007e\275\324n\206<yW \275\010=b<\230\024\217\2752\206D\275\240F\027<\007\324\212\275\000[J\272\340^I\274`\037\037;\364j\274\274)SL\2758\261\275<\375\275I\275%\211\242\275\354:\220\275:\240<=>,\035=\230\261\223<\371\274\200=u\010\234=\227\2461\275\206\276\365\274\374\216\342< \337?\275#\307\037\275|-\232\275\246\307\216\275\200;\321:>.\"=r\213#=\373[\032\275\346\3300=\354/i\275\264>\005\275\245z\231\275\037\324\216=\276\316P=\240\347\025=(\035\221<\003d\207=\'n\223\275\210\177\373\274@HJ<\310\313a<8\377}<\232\'\206\275 \347l\275\372|t=\360\021\215\274\234P\245<\360\035n<@Q+;\366.l\275Y\022\226=\372\316\010=\206\303\037=+\321\206=H\2641=\323{X\275z\375\227\275\200\024+=J\223y\2750Z!<\2400M\273\032\362\355\274\3645\230\274\234\010\350<\301\272\233=\334\210\211<\366\277C\275\000\t\266; \267\240<\006k\031\275*\024\244\275\352\274\320\274(\221\202<\376\004t\275\200\220a:\336\271\017=\250X\005\274\000\264\2539\246\0165=~\3002=\230{\214\275\210X\336\274o=\225=p\320\321<\225\234\215\275\024\343\277<P~\273<<\261b\275\240\002\271;\304\363\303\274\200\322K;\374\002\205\273\300k\'=\202\201\007\275\372\" \275`A\267<\254R\225<H\240s<6\273L=\003\035y\275\370\234\204<\007\013\213=_\357.=\362\3641<\323\304?\275\260\237\213;0\t\222=\250\315b<\330\210\222\274\206,r\275|\034n\275I\250\243=\312\332\210=\337;\265;\000s\226\274`\274\274;\200\274c\274\336\227\036<\244{\t=\016\222Q<+\177\231=}LZ\275d2\317<\"k\036\275\0170Z\275+M\206\275\210\2225=\315p\234\272\302{\373\274\\\234S\275\333\3613\275\366>\213=.\336\210=\234\246*= \331\216\274%E\343<\236\355\363;\361\002\010\275\254e\254<\344>\210\2750\356_\275\257\022\240=b\311\005=h\365w\274\'d3\275$M\343<@\307\363\273@\351q<\203l\202\275p\364>\274\250=\220<\022\214\t\274\220T\333\2737z|\275\275=\237=`\342\007\275r|\230=\031F\222=p\215\r\274A\031\222=uAe\275U\232\272;\331Z\216\275 \2248;\257ul=\t\267j\275\035\210\003\274<l\210\275\237\033N=hS\241;_B\207\275g\273]\275\005\274\225\2759B\256<8/\212\275p\021\361\273\213\301&=\300\322\234<\376\242\272\274X\266\026\274\202g\372;\246\026s<\036\313c\275\353\257U=p\350\326\273\370\262\235=\215\001\223=\1778\001\275\rk\253\274\260m\316<f\006z\275\253\ts=\252\307f\275/7\237=\261\261\224=0\255\356;.\0054\275\031B\220=J\317@=\315Go\275\027\033q\275a\307Q\275\t\001\225\275e\351B\275\2228\220=\306R=\274\246\235\206\275\264\334\224\275S\361\017=^k5=\007@\227\274\234\202\340<\257p\243=\230\374L<`BT\275\"\335Y=s\252\025\275\272\356\037\275z:k\275\032\300w\275\260r_<\324\003\347<\216\t \2759,\203\2758\332\025=\230\377\212\274\200\300\205\275\"\"\312\274\3432\237=\200D\202=\365\217\244\274W\344\205\275\210\002M<q+\027\275,\247\203\275\352\037\004=\037\266\200\275H\210+\274\335\226@\274\361\242\202=\335q\026=)9\231=\035\202\204\275\316\3321=\001Q\245\275\215\263\022\275\305G\206=\202\037\274=\2041\200\274\031a\267\274\301E\220=.y$=h\265/=\365\343.\275\356%\217<\025\357\264\273>qX\275ka\220=\241\377\244\275\243\226\177\275\237\317\023\275\257u\212=-OZ\275\261F\377<\257\265\303\273R\"W=\317b\002=\210Z0\274o\333\004=\004\025\233=\357\376\000;L\247%=,\270\207<\240#9;@U7<\264\222\222=t0E\274\306\254R=\350F\t\274a\320\013\275\034\334\204<\306\375\374\274\230\265\000<Y\014\200=\315\256\331=\354\024j\275v\217\200\275\203G\212\275\363\244u\275C\023\347\272\377T\237=>\266X=\214\2615=0?,<\335V\210\275\320\224U<d\345a=\032Y#\273\216oc=F\244)=\220\344H<M\324\236=?\035\256=(w^\275\245\220\332=\372\251\360<\241B\200\275D \227<\203\343\202\275\001m\326\274T\237\003\275\027\236\227=r\240\264\274\271\037\217\2750\365\223<`\3507<\374\035w=\000\247\267:\013\376\313\274\270\355u\275\301: \275\232\202\257\274N\370\025\275\322\026-\275\215\214\213=v\0007=\207V\233\275\266\247@\275(\375\272\274\032}-=\330i\355<\257\006\\\274g\3653\275${)=R\365\326\275Ks\037\275~\005\370\274a\223\301=\0228\275;\214\246~<\034\362\226<\206\362\177=\032\nw=\033\377\303<oBC\275\344\362\252=\263\027\235=0\201\300=\035\025\005\275\205\264\200;\037\203K<\322\250>\275aXv=\306A\221\275\024\267\335<\322\013\347=\363\346\234=2\005\227=\275\333c=\263m\000<\331\274\206=R8\232\2750F\252\275\330S\253\274\201\364\022\275\205\221\007\276\367\036\243=\021\271\354;\217\315?\2754\014\243\275k\204\006\274\233@\250\275\244 \353<\356%\360=\210$\r=C\235\003>\200/\275\273\335x\273<\271(<\275\334\013j=\326\232^=<,\307\275\271\235\027>l\013u\274\250~5\274T\025\334<\336N&\275\330\231\322\275e\212\323\274\360\203\022<Zm\000\276\336\352~=$</\275`\'~\274\240\214\216<\300\024\360\274\\x\202\275\267\317\274=\276\321\237\274\215\363\344\275H\354o<\356\024\214\274\363\265\271\2753K\010>\034\365\231\273\rr\321=\016U\222\275\007w \276,\202\250;\223S\243\274\207\304\322\275\357z\210=\347\3601=\345\277\362\275\021a\221\275\004+\006=\000$9<X\366\340\274\363Cm=\224g\360=\234\334\365=N@0=w\356\\\275\331\177\211=\234;\316<\212\003\000>\274$\025>\252\346M=X\333\250\274\376\r\235<\036\034\342=A\360:=\200\244u=\311\256\315=j\310\256\275]U\214=\330v\206\275\n\210 =x\324\254<\315\364\220=x\t\304<\031W\257\275 \370\362\275|\350%=\357\370\225=\002\023t\275[\253\247<<m\347\275\304$\266\275\350\346\004>sW\362\275\352D\021\2755\246u\274\023\rl\275?\365\007\276.}\245\274\361ob=\324\n\313<\222\254\223\275Y\320\035>Z\315\014=\022\034C=-\232>\275:\2142>\341\351+=X\026\'>\264\364\020\274WV/=\240\251\214\274{\'\224\275\\x.=\220\303\247<\316/8\276\304\207b<y>\243=X\363\316=0\374S\274\211!\336\275\\+/\274`\262\240\275fy\006=\276|`\275^\257\242=#w\261=\341F\215\275\031!\317=\367?\301\274$@5=\\\202\307<\033_\227<\017\360\230\274\373\033w=\355\3430=\314\266\031\276\362L\236;\221\365z=\362\241\244<\353X\273\275\'\376\335\274\032\003\312\2752\244\221\274u\245j<\247=*=s\224\002>\223L\240=\345k\030>\233\212-\274\360Y\016=\337Ot:\321k\336\275\330\277\024>#\003\313<\030\266\022;\000{1:\340K\356<K!\266\275\304o\331\275\334\264\001=\ns\306\275\253\250\310=P\373\017=\311\375\355<\344-e\275\353\000\210<\347q\314\2745\264\347=\177A\223\275c\221\300\275\272\212\213=\013\213\216\275\346\201\205\274\233H\366= \231]\275\211\007:=\177\211\023=\t:\006\276;\010\003\275R\t\005\276h\3146\275:\351\017\275\372\254\270=\004?\221\275\351\2131<\212p\215\275\343\224\364\274\261\324\267=\346/\266=\001B$\275\026l\010>\031\243\231=\274\207\271\275\244\265\344\274\277_\345\274p\202\264=\003\261\201=\004\253\\=\3134\202=\'\306I\275\376D\">+\217\024<\264|\266=\014\216\266=8\337\331\274\310\330\205\275\273J.\276\364{\223=\2174\013=\216G\314=E]\221\275\244\307\207;\375\207!\275\317f@=<\232\n<g\303\220\275\215\344!>\230\"3\276X\\\252\275\210\2608=\204N7\276\215K\200=XEZ=\237\217B;\202i\325\275\257`l=\353\272\177=\252B$\275S\337\016\275\325r\013>\257\301\367<p\227\036=]CL\275gP\350=\n\371\000>\277\217\013>k\373\236<12\334=\234=\230\275\322J==\2265\212\275}\237[=\035\002\001\276d\322D<\221\022\214<\031K\315\274\222\0350\275\014\'\321\275\342P\307=\364Z\340\275\3574M=/b\206\275p,\315\273\321;\033>\226\310\035\275\021\004\">[Yz\274#\322\334=\270|\023<\260\213\000\275\016n\206\273\210O\027\275U\003Q=C\376\274\274\216\330(=\312R\361=fK\320=\240]\253\275\032M\364\274J\202~\275\310\225\230\2744\270\036>l\373\311=\257sZ<\000\204\221\270\002\321\222=\343k\330=\300\345\035\274\272\245\267\272*\267\341\275\327_\256<Pn\323<\202\323\304<\221\tG\275]-2<Wf-\275P\021\312\275\242u)\275\271\355\'\275\037\325\316=\264,\010=\274\315\270=\201H\334;\202\027b\274Q@\260=\276\232\243<m?\207=\250\231\r=\353P\234=\350\r\223\274\020\341\254\275\233\017\376=\326W\026\276\360\002^\275\2338\312\275\000\257\274\275\202\036\2039C\210\243=PZ>\273=\313\204=\335\002\003>(\275\036\276\224\334_\275\260+\215\273\023\371\242:\246l$=\255\320\247\275\345\004\200\275+;\251<\'\260-\274\364\207\030\275\020,l\275\n\003k=\005\343\014>\304\227`>\255\010.\274\273\261\034<\241\315\273=J\2759=\006\324\014=\300Z\264=[\335\221\273k\276\n<\311o\231\275\021\355L\276\224`\222\274!\206\312\275\026r\272<$\212\346<\272\354\246= \224\007\275\305\000\002\275b\245\274=F(\374\275D.\217=\212}9\276\253J\236\274?R\223=/R>\276\031\302\243=\255\313\205=\021\211\331\274\250\335\343\275\343\303\213\275\300Z\037\2750\375\t<\251\212\226\273C\373\245=\333\3355>X\275\310=V\372\245\2757\2524>\361\307*>J\032\267=y\324\033\276)\014\244=\374G9\275\316\361\216\275\010*\344<K\225\025>\347\240\272\273\327\376R\275Ud\270=)>\322=\260M\300\273\360\375\314\275\273\244\020>U9\313\275\020\311x<\367)\247\275\024\033\250=BT9>\376\231\241<\322\313(>\360\250\032>\225u\222<\024u%\275\241P\331\275\200\300\'\275\025\210\256<\267\310\014\275\245\014\207\275\333\020\257=P\247\006=\027\262i\274\364\256,\276\036y\005<k\316\252;74\310\275a\362\215=e\325\305=\024\346\205\274\305\225\\<~\345>=\236|\224;;:\232<\254LU=\260q\322\275MW==\3475\217<\240\213K=>u\234\274\220\260\332<\243\217\213\275\303\363\033\2750\203,==\212\006\273#\357\010>\300\327\351\273\373e\216=\211\260\200<r9\244=\202\277\330\274)`\007=\262\373\203\275v\006w=\264\024)\275ns\270=\005-\264\275f\315/>\2636\031\275\255\247\212\275\217\266\205=\274\2726=\263\202\032\275\306?g=\231|\270\2706b`=\367\227\026>\005\262\014\275I<j=\203\027\326<\000\234%\274\366\037v=\034\357\234\275?ai\275\207\312\377\275\213\t\020<\2576E\275B\240p\275\340\037v=P$0>J\025\322=\211!\272\275\304t\313<\240\031\362=\273EB>\334\357\230=\235\375Q\275\325\210==\375;\r\276\270\237X<\023<y\275g\022\017\273\207sP\275\022\265P\272\234\003\226=:\314\t\275G>8\275\037*\200\273R\257\363=\350\t:\275\354H\274<\327\224E\275\000\270\r\275\235\035\332=%\236E\276\001U\022\275\000\010Z=\300<\013>\025&\010\276G\222\250<x+\021\275\004\336\203=YG\253\275\3263\214=\376yS>z\013\010\275Y\3500\276\351{\">\341G\245=w\231\316=\005\352\325\275\331\346\307=\017\356\307\274W\203\235\275\260\346\217<\017\302?>\n\327;\275f<\324=\316J8\274\316\246\252=<\301\177\275\024\303-\274Y\203\016>\225Y\326\275\025b\177\275\253GS\2756.V\275\007\371\374=r\373\304\274\224\250\205=\244\250\363=]C1>?\341~=A\211\244\275\246\\\027\276\370\274\244\275^H\224\275\270\"\336\272\321\253E=\306\253\374=Q\036\007>X\374n\275\360\275P<\350\217l<l\343\217\275\243\345_>\255t|\274\234M\230=\357\022C\274;\253`=\202\273H\274\251>\337<\204\'\r=\017\373\220\274\325\212\350\274\374\365\373<*CB\275\300QC\275nV\244\275Gz\365\275<C\026\276\221\204\007<c\256 \274\217\207\371=+\217\333\274\rR\341<\301\021\010\276\032~\340\273V\247\215\275!\274\330=\2102\341=\227\251\275=-\256\230=\253AQ=\372\347\020\275oi\031>A\"\024\276\021\356}\275\361\250\211<\347\2443<b\265e:\206\303\001\274I\260\014\274\0033*=\2333s>\205\311\346\274e`\344\274K\307\205\274\337\354\272\274\367\230\214=\214\002\201\275\035n\323=\235\215\034<\262\333r<L\234\261\274\337\320\243\275<S\337\274\347\203\331=\3470\230>JY\231\275\234C\324\275\247\357\330=8z8>\353\351\300;\030\224\177=d|.>G\247\031\275\203\034L\2757#\217\275\036T\243=\003mC\275,\236<=\026A\036\275\007F\201<0\317\303\275<\013\221\2746)\251=\231G\240\275$\2039>\326\2613\276i\362\346\275Gn\221=T\271\322\275\031Vf=\206|\222=\267\354\266<\321t\332\275|\2111\275\016\245\213\275\322\325z\274\240V\301\275\211I\'>sL\216>\005\320\030<)g\376\275\322\243 >\311pA>MH\243=kO\335\274\245\277\372=C\206_=v\031\221=\251!\314;\257-\373= \237\026\276\0263\271<[Cu\273Y\352\254=ph\341\275H\277\375\275\304\255e=^B8\276\346t9<\230MP<\205\315k\275\027,\\>H\014\266=\002;D>&S\242=\325\303A=\353\3025;\274\200\205\275b\001m\275\252\247\375<(K\357=\023\n\250\275\203\027\212<\300\2778>\035\336\036=\033\373\211\275\234(\373=\002;\274\275\200~\315\275!\257\021>\242}\246=\364b(=\241\367\026\275\274\362\201=\354\244o=\312<\035>\351\324\351=\243\316\242\272\337\361\320\275\373\273\232=\247E\353\275\220S\346;\260\242 \275$/(\272\3015\303\275\214Y\307\273v\277<=maI>\312R\003>g\260\214\273\361\332\260\275\203\035\035\275\254\205\314\273Z\353\006>\341\016\236\274\362\351\234\2752\305q\275\230o\321=\013e\214=t|\246:R\301O\275\005\271\000\275{\344\327\274\003\335V\275\035\024\373\275\013*\253\275>`\204\273\335\247z<\356\036^> \343\364\275\243M\203<\\\232^<\342\363\037<\331\315\355=\251\236\303\275Xk\r>*\246\375\275p\215\315=\',\356\274E\000\226\274\357\031\222\274U\306\311=\363,\035>.f\202\275\340\222\222\274\026~\030>\350\236,>\360\377\000\275\226\227\250=?\206>>\212W5\275X\013\216\274]\244\254\275\374\272\000<\342\257C=\013c\221=\22588\274t\377\342\275X\236\205\275\207X\271\275\310\373\243=\234R\035<\221M+>\353\205\374\275VT\365\274%\3270\275\365\225\324\273l\216\374<\253\235Q=\360\214d\274o\031\301\275hm\356;\230u\231\275\331<(\275\230{\214\275\312\230\030>\214\241f>\314\231S=l,Y\276i\242\034>G\334\">\261\265\260=\037\337\001\276\367<\'>\312Xb<\351Qq\275\214\025^=\241I\177=\241\023\323\275.5\035=\265\023\032\275\217\242\241=\027;\272\275\030M-\2752G\332\274\261\002\276\275r\002\306<\245<\215=\344\232\346<\230\262(>ED\004=\024\365\375=\335F{=\235\370\203<\325\030\226\274\r{e=M\022\235=\241SD=\1771B==\027/\275%\312:=\211x\031=\213%j=\013\264\024\275\242\037->\243R\276\275\201\331\027\276s\276$>\230Eb=\245\220L=\367\335\325\273pg\010>p\\\021=\337: >\237/\024\274L\261\253\2755\221\364<\035\377[<q\212\337\275.\177^=\375\3253\274-!\217<Q\3362\276\274\275\224\275\206\357\316\275\204.\034>|\206\312<\317\316e=\336\265\376\275Q\342\020\276\221\214\016\275\2239`>x\216s\275j\000\314\275\\\346B\2754d\005>\342\366G\274Y#\374\274\373\256?\276\272\334K=Z\002\246<\324@\205\275\321\270\347\275\345B\013\276\205!\303\275\230\317\320\274\315\277\254=4L\242\275swU\275\261\241\200=\326\315\005=\320\345\354=\245\"\005\276\307\254\301\273\274:\240\275>3\236=\212\352\030\276\332\317\032=\277\356\233\275\345\263\234=\"1`>W\206\235=C\210\211\275\035p\304=kq\345=5\200\001=a|P\273\\y\211>\016\337\216\275T\356\263<\376\207V\274q\213\300\274\242L\354\275bpA=\314w\211<Q*\221\275\245&9\276-\250\254=\260|\004>\316\257c\274I\0172>\334\030$\274\330\327{\275\372\373\235<\314\031b;\215G[\275\r-\341=\204\304\254=\020\371\004\276z(0\275;\352~\274\212\010\336\274\333\206\226\275\nv\020=:\326\326=\034&O=B\353\206\276xC =\312k\326=BR\020>\323=\353\275[\273.>WT\020\275mH\260=\202`|=Un*=7\271\374\275\310\266\001>n\312\261\275*\246\327=\305\330\006\276O\027\343\274}\315\243=\361\327\004\276\013Y\036\275\035f\027>\353\020\350;of\357=\t\262q\275\206:\\>\313\331\206\273\327\206\250=\240O\201=\272\323r\275Gl\364:\335SS\273|1\244\274\241F\263\274\274\262\233=\266%>>\323Y<=\0143B\275\375\235\310=\325\267\t\275r\363\377\275\241\301-=\302_F> a\033<[\372*<\025\316\346=\377\206\262=$b\314=\231\270\254<K\r\212\274ht\330=x}\314=\271\362 =@\026\376\273,\030\022<\346O:=\022\327G\275\000H\007<\274\323\243\275\272YY>ow<=\237\213\356<\223\230\037\276\274y\213\275\005\270S\275A\022\307=\017>:\275\351BF\275-\021\200\275~\027\227>\267{.\274P\255\227\275`a\325\275\237ra=\001\020\256\272r<\354\274S]\024\274)\306\247\275=*|\275.R\267\275Q\202\274=n\342\213\2734\211R\274\257\004\330;\210\305\260=\215\271t=}\004\003\275\000\271c=\031\031\311\275K\270\304=#q\203\275\003D\276=\030\372\374<*#\304\274\223}\034>\336D\"\274;\024\204\275e\366\360=c\003|=\260\230\321<\374g\341=\033\250\261=|\342\246\275e\317\244=\275\037T\275\237\1773>\033m\325\274Q\376\301=\002x\240\275\240\324\006\273`\305\377\275ifG<~z$>\206L\377\274\030\241\317=L\376Z=\271\214\010\276|\247Y\275\274\311\351\274`\177\327\272\235Q\014=\013\270p;?\200\306\275\026\271\201\275\265\'\211=\000 \351=\310}?\276\262\363\026>\022;=>\262\277\217=\273\337y\276\024\350K=\316\302.>\357\227\014>\220\014\026\274\267^}\272\344\335\366=N\352c=\345\353\037>kY\3158\000k\200\275X\003\341\275\226\245\305\275\301K\005>\256\377[\276\222\345\364=[\264\263<\264bU\276\257c\220=\2556\r>f\252\306=\267\007)=\014\266\357<f1\017>\220u\340;q%}=\031\335\030>f\034\323\271\353\375\">\026\3213=$\272<=\254\022\035\274\033d]>\303\345+\275Q&\211\275\215n\002>\232\031\265\275\'\010\344\273jn\010\276\356\246\217\275\'\336\233=1\n\357=\311\000\002\275\233*\265=\222\2624<@\265\016\274yRB=\200g\205<\321z\245\274\035^\244<\353\317\216=\222\013j\2750\274\310\275a5\310=h\202\030>b\322c=\225\032\022\276vDa>\266\220\002>\214\351(>)\t\250\275\206q\366=\273[\224\275\357pN>\355\362\274=)\220\001\276E\236\210=\233H\270>p\0000\275\177\375\245>\355\275Z\272\361<\234\275\017\241\t=P\223\033>z\005\207<\023\036\233\275\337I<\276L(\021=\2203h;\261I?\276\251\302_\275F\365.=\323Y\363;\016\213\221=\357\224\271=\t{W=\350Q\214\275\212\272F\274\347\030K9\321[\270\275^e\204=\363-\315\275\210x\347\275\256\245\265<k\037D\275`\177\202\275\031\332\244<g\252\005>Pt\245<\233\346)\276\'\350\020\275\350\321N\274\221~\006\275,T\275<\256\311\326=h\347\247\275\325{\261\275\341\333\332<,\251`=\301\264\375=<\235\252<\316\355\035\275lE\360<\246\001\207<\334\351\261\275\004\325\305\275\275>C\276\r0\030>\'q\223\275\335a\022\274\n\3450\276t\211\032=\316\342\214=\034\377b<\247.N\275\013\341(>\016\204\247<\303\263\216<\2410\252\275\352\336\027<\231\033\224<\317\351\356\274UpD<\230|\276\274305>\264f\355;I\'\037>-\322\031=c\263X;Q\374y=\277\0179=\347\263\346=&B#\275\343h\234\275T\270\312\275t\241\034\276\335\363\371=\010h\035>\276cM=$q\032>\017\317\215\275\372\353\025>z{\244\275\246\343%\275\024\351\033=\343\017\346\275\204eU\275\032\033@=\3115\261\275\007t/\276\026\361\005>\311\217\014=\3717.\276\242\240\330\274<\305m=\033\230\320<\303(\315\275)\021\317=\271\207R=\027J*>\371R\216\275\343\252Y=\030\365<>\035\354&>+\261X>\242@\267\275\222\345K=!\350\205>\356\214<\275\354\223\317<\367#6\275\2028\204\274\331\237\337\275c\233\241\274\032\266\321\275,6\273>\261h\256=|3$>\032\327\022\276\277Jm=\355\032\242\275dzK>!\032\307\275\254\374/\276\250\332\272<a1\226<\346\027\360\273\035[\017<\036\311:=M\271]\275\243\300b\273\'W\327=uG;\275\270\t\022\276\364\255\300\275\204\337Z\272\210B\034=c\333@\276\375x\020\275K~\336=\365\207\333\275\034\327\037=GJ\347<\312zn=jm\033\276:\003\223\2742X\346\275\373E_\275A%\032>\332+\207\275\371\246\333\274\253\304\303\274}k\007\275\347_C>\317\255\203>\337\301\017=}\363j\274Z\220\210<qk\256\275\322MK\275\234\212\\\275NI\033\276\\[\016>\360&%\276Y6!\2767\211]\275{\375v\276\344\373\244=2\377\213;\302\035\316<U\234?=\027:\'\276\004\321Y\275\353Z\233\275\025%U\276,:3>}\251\357\274|\010\311\275\211\033\r\276\276f\\=}u\006>\267*\300=\004?\212=\0075r>\362#\254\274\273D\247>\001\212\263\276\232\251\204\275\233\252\214=\315\364\310\275H+\376\275)\242\236=\365\245\375\274A^\031>\316\026d=4\211\366=\341|{\275$\022K=`$\022\275\252o\210>%\177\013<\235\277\267\275\236\312`\273+\222\000\276\273\034L=\365-\277<r\362\200=\2679k>h\\\333\274D#\245=\200e\250=\216(\n\274\337P2>i\014\305\275\237\246\034=\375\3379\275b\r\374<\216\177\234\275\017,\220>\217\243\332=uI\233\275\310\264^<8\037\326=\312\2113=\232U\025=\207\305\351\274\371@\244\273\205\333I=H}&\275\2545\236<\314\177\304=\374|\031>\305\334\014>\364\324\334;;\363\034>\376\203Z>\324\0373\276\016\343\327\274\2036\031>*C_\275?\351\211\275\274\n\244<\242\201\205\275\275@/>@%c>\214O%>y\300*\276\002C\025=\r\361\222\275\000\301S>\234\227Y\275\325\177\013\276m\354\233\272)\032\222\275\035\036\025\276E\233\345=\026N\212=\006\314\223\275_.C\274\221\025\311\274\354\213\024\276\334\252\024\276\327\255r\275C\273J\276>uM>\24618\276\335L\364\275%\222\201\275j(\000\276X\367\345<s\373\231<\000A\355=e\235\233\275\327\346\317=\337-(\276\014\233\250=M\334\036>\234\003\214>#\316\215>\377\312\244\274s\207\013=a\304\200>\031\273\001>d\201\033=\2266\367=d\207F>\343\204\324\275\220%6\274\3738\215\275~\240)\276\352\213&>p\265\375\275\351{\030\276\275\2373\276.\350\014\276\373V\350=\3046\347=\240?W\275`Q\r=\371Z\332\275_\331\3609E\325o=lZM\275i\016\277=S\337\026>\267\231(\276\341\322E\276]\203s\275\276\372\371=\266\222j=\325\224\307\275\243\356[>>\312\216<=-\r>\260\200\221\276\327\201\244<\241\262s>H\363\373<\311\032\233\275\252\037\340=$e\227\273\3571\212\274c\000V>\0332-=\250\363\214\275\017\275\372=-^\230\275p\033\014>\250\010H\274:pg<\353\271 >\264\327\254\273T\001p<t)\023\276\374p\367\275\036\\\337>K\213_<I\017\250>\222\026h=\300\277[=Z4\241=\251Yx\275\337\'2\276\267\204\275\275\266k\010\274\201W)\276\264k(>\204\r\212>\360\275\345=a.d\275\230\325:>\320\375\'\274\007\010\276\275\215\222l>\236\261\000>W\272\034>\010@+<\3179\260=\216D\335<_\357\216>w\312\266=\001\025\324\275\230\013\347=\376gV>\313\3565\2768\007L\275\302\030\325=\372J\365\275\363\251I\276\007\221\241\275\305tP\274\224%\034>\n\3341>C|\272;A\345\002\2761\332\n\276?6\016\275e\377\'>\271?g<\261^\232\2757\217\264\275\254\304\353=(\021M\273\243\320\324\274\007\253\000\276\273V\364<\371\214\004\275~\214B\275\273\202;\276t\206V\276}\233\013\275\377\023\307\275dn\223>\340\037A\276@\005\334\275{\032\014\276\244\3113\276\241\216\n=c\267\271\275C\272\366=\223,\024\275\276xz\274:8\323\275\332\034\266=\313\262\306\274\036C\211>m_\254>o\216L\274{\206x=\346\004\270=\325\226f>d\206\001<I\351>>[\005:>G9\241\275$!\305<\230\214\244\274zj/\276??\365\274\2641Q\275\244m\374\275\005\325\246\274jF\003\276\236\032\t>\324\034\205>k\022A\275b\343K>\353g\370\275\351\245\346<).w\2753\260\206=`_$\2753\2458>\234\274K=k\231\320\275Z =\274\363e\362=J\207T\275\317\nU\276?!\212>\314i\222=\360i\362=\355n\230\276\000\367D>\235E\273>_\'\233=\261\233\201\275\224U\006>{\311\320<\325)\253\275\227\216W\274\2028&>_\253\026\276\337I\330=/Db\275b]\030>8\332\233\275%Zr\274[]#>[\301J\274s<\007\276\356\265\006>W\231\016=\001D\263=%\373\006\275\240\027\201>\271-\245\274\307VV<6]R\274`\344\307\275\367/\004\276\220\363\302:\371\207W=O\354\342\275\200\000w>\025\003\023>|\316\263=\324\214\333<\007\245<>\023/v\273D:\000\276bc$>N\214\335=\357\243\255=\245\004\331<I\241\355=\212\201\301=\210\367\006>\260\2355\274t#0\275G\264.=\245%\311=I\325!<\322\000\217\275\031\007\300\275N\266/\276\224<\346\275\276\007t\274\354\322{\274^j\202\274\346E\\>\023\306\241\275\020\014\271\275\020\034\240\275\250\006\251\275\202\342\n>1\251\272=t\366{<n\271T=\034\021h>\276\354e;\275R\347=\340\363\025\276eA\374\275\267\327\031=z/\034\276\3214\277\275\321\200\243\275\300\242\265\275\004\016}=\373\344\213>\270D\350\274\2371\203\276\313\331\">\325\372\000=\207\231\254\274\372\300\001=1\232\245=T\246\247\275A\001\n=\242\337\362\275\243f\205=I\351\320\275O\244$>\263\377^>\350\311\225\274S\205$\275\357\300\275=>bb>\252\0219\274\331\217*=\276\314\r>.\206\'\276\212\226R\275\351\231\\\274\306\355\262\275\234 \t>\333dz=\353\325\024\274\326\375Z>q\321\013\275\361${=\271\344\031>c\337\300\275g\334\177>\227\337\240\275\277\207\354;\2666\357=\353\374\245\275}\277\241\275\200F.>\27263>)\323f\275\353u\264\274\000\303K=\202\366\237\275\373\000L\276\237 \311=\0014\n>\303L\310=\322a\024\276\366\244K>5\347\365=\247\3678>J\313\003\276\235/]>,\371(\275\316h\250\275\237\214m\275\230\360\017>p\376\024\276\363\235\251=\235j\224=\022\202G>\357\"p<$r\003\2754\210\324=<\361T\275<\370^\275H\321W>\337\213\260<\263\016\233=\371\233\214<)*\024>\364U\001\274\342~\305\275\252\2460=AS}<=M\331\275\356\214\014\276i\n\234;\007j\n\276 \237\034>\347\202\'=O\273g=e(e\275f\362<=\342?\014\274\217\310\000\276\327\210\260=\033\231\302=,(\336=\251\324}\272\272\373\022>\200!\233=L\242\353=\020\335\023=*$\314\275\"\227S=\340\t\003=O-\027=\202\346x=\217\274m\275\356\355@\2752`\330\275Dn\375<P\243\345\274\354\302;\275\'\243/<\255L\035\275\\\312\031\276M\006\027\276\262\236\266\275)\256(>\2730\232\274\245\232\242\275c\273m\273R\207\010>i\330\301\275\037\r\367=\004\252\323\275\225j\267;\020*\005<>\250I\276\244\276u<\252<\311\275#\001\327\274\227\301\324=\331\307\032>\003ti\2756\364[\276\"DM>\"\206p=\230\353\273<\324\020\260\275\254Fz=\027\236\363\275\322!\304=\\\017\302\275\204&\376;/?\320\274\204\214\210= \341\n>\004\360%=\253\037\"=\365\362\352=\362L\021=\363\257\232\275\323\356v<\304j\'>\324jw\275\214\332\210\2747\353\"\275\036\035\230\275\0109z<\2134+>\363\213\374<\021\200-\275\264\375\357\275\221C\">\321]\t>\230C/\274sx\206=\213\014\021\276\256\351y=\375\264\243=n\236\364\275\234x\363<=s\266=B&\033>\230\351a\275+\343\t\274\000z\261=\221f\257\275T\367f\275*\226\264=\357\247{>\"\242\315=\321\322\350\275Z\375\005>:^\234=\203\022\342=\246}\360\275\252\222\020>\223\221\367<\3468\304\275M\010d\276\275\234\236>\262\212\203\275\203\274w<\0329\363;g\326\271=p\335\376\275\244\205\323<|F\346\273\330\036g\275\256\027\202=\003\341 >\002Y\223<\326\303\232=\016\247x= \301c=\374\n\014\276\007\340\305\275\332W)=\257W\335\2749\013\343\275\233\230\'\275\001\204A=\346\270\026\276\233\357\332=\360\317\002>\315t\253=\2630#\2752\375\322=\020\017\020\276\0175\265\275\270\327?>\256\2001;\321\273\023>\350\250\277\275\264{\035>\240\334\225<\\\020\347=\177yr<\247Fz=\251\247q<\256!\321=\005\211,\276\340\207\330\273J\020\034\275\004RM\276\245\020Q\276\0145\004=\r\363D<\002\335+\274\226]Q\273\363\210\243=\013\230 \276j\036B\2752\"\304\275\033\275D>\302\227\255=\263\3215<\025\357!\275om\257=[\255h\2759\317\021>V\000\205\276sJ\n\276\320\233\247=\253O9\276$\344\257\275\336@\205\275w\331b\275\273\264 <\344O>>\205\3539=\013\306\230\276:`f>\350\020\026>q\233\030\275\000\343\304;\266\014\000\275\271e\357\275U\357\230=\367g[\275\027*0\275\333w\353\275\001v\376<\315\371\256=(\n\365\273\210C\267\275\n\350\304=\330\212\037>t\237\222\275*\033\335\274\271DJ>\013\213\013\275\300\257\032\275\230=\307\275:\377`\275>\027\265\275\t-\231>D\213\007=\004\223\235=:#0\275\311DS>\234Cp>go\257\274B7;>bP]\275\023:\013<\253\024\033>\263\375\003\275[[7\275\355IK>C\027\366=\304\277\375\274\231\256\\\274wy\230=Y\241{\275\007\3505\275,\365\335=\325$\033>\253\277\317\274\246\2017\276\341\223I>K0\203=b\265\303=/S\231\275.w\036>\235\336\024<\355\341\217\275t\363Z\276\221\030\273=\003\367\261\275j\361[<\036Gy\2744lc>9\232\022\274^\340/=\312\\\314<\347\210\017<W\314@=\307\306\035>\231.\016\275\010\002\311=\026J\037=\350\013J=\247\372V\275w\031\364\2747/\'\275\3650\276\275\n}\3349\235\350\033\276\030:S=3\340\t\275 \023%=\002\277\'\272\360\371\254=6W5\275\273\034<= \206\327\273\037\302\262\275}\3007>\3751\374\274\220\022\260=H\250L\275\201\020\270=\002\221\016\275\376\217\000>\016NM=\341\317\035=\233\323\224\275\277\273\300<}e\366\275\360\224\244;\363\267\247\272\330$\343\274\370\272\301\275\324i\373<-\226\324\275ZI\235\275 }P=4/\242\275\010r\036\276a\024\224\275Y\325S\275\256\350\336\273\341m\314<\225\245\201=\020M\261\273\241\026\210<\362\3214=\200\325\024>\246J\361\275\203>\026\276J\242\032=Q\3334\275\304\251\224\275B\363\270\275\230\356\233\274<\302\271\2748\323l\273Jwd\275\243O\027\275g\325\202>2\201/>\271\034\217\274\021\235\216=ul9\275D\357\277\275\356\333>=\334\222,=%\026\210=\314\321U\275\204\004\251;\312\336\321=;\304\213\275\340\311X\273\016\223$>\263\024\010>\033i\246\275\241\317U=ZR+>\210\206j\274|c\257\274\264L\022\275\224]u<\342\014\020=\240\307\036>\262\\\205=\252\341f\275\230\246*\275\336$\215=z\206\037>\206V\346\273>|<>\251\307\007\276\354]\025\27683<>\345%V\275\216\361\r=K0\022>@\366\201=\260\212\005\275\275\277\204\275*Y\013=@\226{\275u\355\205\275\200\035\344=\302\327\002>v\010\376\274\207r\t\276\217\2016>\r\253,>%3==\345y\n<\000\005\264=\236\356\320\273\356=\233<\252\357\014\276\313\232\356=\346\251\321\273\345EZ=\235G\233\275\242X,>L\275\032\275\204\003\313\274\2710a<$\333z\275\010`\241<\245\255\177;\350\303\232\275\342\344\000>B\344&=N\347\300=\305r\037\274\005U1=\002\242\352\274\256\rg\275\004V\256\273\377\212a\275\245<}=s\350~\275y\264\345=\211\202\023>\010\227\276\275\371lh\274\014\"\263\274\205\272==lA\243\274\243\240u\274\312P\323\274b\310\271=e\267\273\275\024\035\006>\007\036\200\275s6)<\240\222-<\345\206\244\275j\206\212\275\314^R\275U\321!\275\257\030\002\275x\244-\2748\277\335\275>`Q\275\332\300&=\321@\345\275\325MI\275[\033\013<\220)\037=/\254\313\275~\214F\275R\372\312\275\201\244\310=$\370\243\275>\340%\274\370\td<\245q\033=\326\003\027<\330K\326=\314\232l\275\247\262\251\275\275\375\234<\351\301Q\275\371\t@\275\246\222\272\275l\355\257\275Aaw\2754\023\013>m\370[=\024r\014\275\265\350%>T\244\307=\263\0354=\220*\271<Aw\202=XU\273=\000\263\221\274\351\030\010\275k\340\201=\212\360\224\275\332X\005> \241\001>:g\274\274({\302\275w}f=\250F\242=1`\205\275\274J\331=\023\327\r=U#\004\276\260\244@\274\344#\260\275\315\215h\275\nPD=\262j\243;;\014S\275\207\264p9\\\304\021\275\314\363\200<\354\375\307=\211N\313\275\231<\005>\256t\246\275\222\324\010\275\221`\351=_3\230<\236\250\270\274\02569<\201U\325=\177\246\204\275 \036\t\274\017\256E=0O\355\274\314\235\203\275~b\026>\265G\002>\224\222\200=\322\256\001<\265\346\013>\375f\305=\230\364\214=\026\227\204\275\306b\316<\375g\316\275\310\2759<\367\257\212=p\225\304=\200\023a\273&\253h=\211\004\207\275\205z\023>\233{\214\275\275{\026\274\244\242\202\275\340\235$<\035>\370\274p\027o\275`\345\324\273\254\230\246=(\273~\274b\204\203=@\240.\275\217\225P\275&\327v= u\000<3\253\212\275\243G\210\274\201q\244=#{\362\275\320\346\365;9\236\307=\312\352\255\274\211=(\275&\310\025=j\006*\275\323\270.\275\217\263\240=\344XR\275M\246\006=Te\217\274w!\001=\010\3755\274\303X2=)\312*\275\314+\266\274\273\226\231=\225\321#\275J c\275(\356\'=\370\331\211\274t,\327\275\212\345\010\276\310\343<\274@\023\006\276\326\2608=\314]g\273\362.%\275\247)\343\274 B\256<\256\270b\275\266\263\002=\026\242\200\275\331\3665\275\374%\227\275\205\005\264\2752@>\275\377\257\r>\035\275j\273N\232r\275\351\252\200=\005]\005\276\037Q\031=\307\264u\275\202F==\314X3\275\356{G=\362a\305\273o0\203\275\215\010`\275_1\242\275\242T\245<8\236\356<P\206M<\33671\275\240%\203<C@h\275x8\225\274\356?S\274\343\315\200=^\\\350=\306\260r\275\031\305\311\275\200\245\210=a\"\315\2746\364j\275\334\016\327=\333\265\037;\035\341\211\275Eg\201=\321E\265\2752F]=\261\027x\275#\375\337\275\352Qm=\030\377C\275\0234\213=hP\230=3\022\330=\206\212\263<Q\177\201\274\205\034\263\274\325\261Y\275aE\211\274\277\033\202\275 \202\217\273H\364\255=\347\t$=\025\334\223\275\320\216\350\274Q\334\200\273\200\336\t\273\235\022\240=\273\215(\274M\302,=\336\352\234\2753_z\275\326oW=\262i\305=\351&\014=\324\260\004\276y\327\334\273\330\377$=\nd\237\274\206|\263\274\202c\220\275\213\213\245=*`\033=\202\311?==\337\010\275}\017=\275\223.\231\275H\213m<fx[=\036>r=\\ \222\275\247\277q\275\033\372\205=\360\271\307\273\220\267\230\274\020p?<\235\252\007\275\034\210\320\274\244\242\\\275\300\007v<\350\311A\275\000\270\0209[\236\244\275h\366*\275z@`\275\212\275,\275%\250%\275t~W\275>Q5=\222\304O\275\210ze<\2147\276\274`\254\237\273\0002 =\230\240u<\261L\230\2754G\273\274@r\202\2754l\023\275x\3230<\r57\275OE\017\275\204.\001=\317e\242=m\267\217=\362\356\223\275\000\326\2619\034\210\033=\025\267\242\275t\022\272\274\350\327\227\274L28\275G\372\037\275hf\005\275v\n$\275\323\232\212=Jo\251\274\375\241\243=\344L\200<\227\262\234\275\020\262\037\27460\021=\031\203\212=\256\'\332\274\350\337U\274x\241\314<=xU\275f\377d=\356r\247\274M2\241\275\342\365\227\275\372\250\376\274^P\\=\010\375t\275\277\352n\275`\343\232<\370V\274<\020\035\201<\236i4=\010\373\013<\354#\226\275\352\374r=\312H\217\275.\306\r=r/8=^GF=\020\014\230\273\374y\331<\270\372\'<\370D\014=~\266\021\275h\027_\275\202\301\213\275\336\212\023=,\320\375<\273\343\235=\"\325\227\275p\300\315<\376 \177=\211\310\232=\220>6<\302\002G=F\037\225\275\021z\245=g\332\207=P6\256<\362\r\021=\260N\246<\240\351\003;\232\024\344\274\354=\245\275f9B=\000\267\001;`\007\300\274\354\017\324<\200\267\245\273@\321v<\274e\240<\254;\261<\362\005\010=rJ{\275\340\272\213<\254!\201\275\224\263\331<\354\230\237<;\241,\275`\377\307\273\260\206\216\275\367\230\215\275\354\253\205\274\210\246.=^\004{\275\260\000\247\274\220\200\256;\250\\\024\275\300|\357<0\225\266\273\3646\212\275\300\215\007<@\317{;K\353\237=,\353\311<\204\016\022\275\261W\215=\266\004;=\247\372\213=NvH=&\004@=\202\210\202\275\270zd\274\226\351)\2754\227\003=\256E\033=\n*f=\005\276\200=PH\364<\t\307\211=\226\363>=(\316u\2756\361\365\274\346rH=\300\261z;\211\254\210\275@\326[<\225\337\035\275\372\006:=\022\337X=p_\217\275H\013\210\274[\t\240=\260;\213<\314/\235<\340\206d;.\242P=\200\300o;\273*\227\2758j\330<\2513\236=\233\230=\275\362\376C=\212xG=@\031\276\274\200\365\020\273\200,\220<\022\'p=\025\033\037\275\006\223\034=\257\334\221\2755\221\017\275\177(\204=,g\341\274\230`\030=\270\230(\274|\"\261\274\366\326\000\275t\244!\2759,D\275\2609\231\275T\273\220<L \207<V\276\241\275\350\0370<\032;|\275\376B\211\275zcO=\333%V\275\000\2310:&\003T=\362\236R=\020\035n<\304\234\212<T\374\262<\320\326\255\274\250\2530=\316\320U=\010f8\274\265g\225=BEN=\377\rI\275\321\210\236\275\363^j\275\213\342\212\275\300\236\242\275\330\305~<\220\350\004=\200)4\273\234x\017=\243\214\226=\346\306y\275\304\222\357<\262\036Y=@\200\n=\016\244[=\017\022\221\2757x\224\275\020Q\253\273t\313\037=E\3323\275i\272\013\275\324\273\214\274 \225\215\273\340\204\257;\204\300\254\274\240\320\247;j\355e=l\027\235<@ \023\274W\025\206=v\322H\275\243-\230=\335\367\230\275\376\363O=0\274\226\275\330K\225\275A\277\236\275\246\263Q=\347\333\237=q\337\207=\341\266\245=\022\253S=*V\223\275V$ =\337\307\034\275g\025F\275O=\235=\320!u<5\023\217=\250\350P<8m[\275\305\323\231=\234\342\227\274\261\222:\275`\206\201\273\350\023\225\275HB\n\274\363\r\201=\246~O=\361\336\210=\360\213,=p\346G<\250r\274<\362\324\002\275z}\233\275g\2018\275|N\224\275\323R\206=8\217\243<\342\2404=_!2\275_\346\240\275\340\002\310\274\r\302\211=\254Q\201\275\rM\231\275Z\001F=K\331\200=\342\254N\275\217\341&\275 \254\347\273\000R\215\272\020\213\002\274)\360\236= \\~\275\031\021p\275:j\374\274A\'\211=\201\215\200\275*\306_\275|d\211\275\230\000\203<8\206\373<\024\270\213\275\360\024<<\377\376\205=\376C\212\275ax\217\275=\376\214=L$\203\274\006P\027=FSu\275\305\307\225=\375K\227=\250\025\223\274\332X\375\274\371\307\222=\235,\245\275\271F\225\275p??\275\252b\000=\346\345r=\027\026\217=\350\014\356\274\020mU\275\321J\201=\200\303\350;\242\033?=\300/q<\027\222\r\275\226\274\027\275JsC=f\202\\\275\3556N\275R\232\224\275\342\233J= &\310<\235u\014\275 B\371<5\231\217=\020\353\231<>w\235\275\302\201p=boo=\214\221\201\275\320\246`<\360\256\345<l\331\254<\337\016\227=\262\3616=\300=T\275\350\375\037=`*\374;\013\225\245=\370!\206<P\332\215\274vM`=n\254?=\026\322P=n:M=rMu=\032\271j=\022<B=\302\310\343\274\20524\275\360\357\205;\240n\365<\217M\231\275\302\301\324\274\333}\226= \343\266\274IE\231=bb?=\302\353n\275\241\376\234\275\004\241\361\274\350G\023\274\027M\203\275\2749\036=\223\204\212=\212/J=\230T}\275$p\203\275:\330b=\204E\241<\342\037\205\275\207Y\217=\224\274\216\274\203C\230=\300\313\013=l\206\035=%\366\220=\330\323D<\300\326)<\204\320^\275\360W\007=($\373<\020*\375\273\3153\034\2758\376a\275\010\301\213\275\240zu<\010\017\327<\340\262x\274d\330\360<\200\n\231\272p\303\265;h\'\204\275L1\352<\354\3651=\260?\250<\030\030\033\274H\3131<\255\020\210=\034@-=\257\315\231\275h\275o<\260\266\333;\004\355\225\274U\001\223=\343\037\234=\00024\274\353\325\224\275\210\330)=\260\334\273\274\363\237/\275\000[(\274\340W\035;\250\037\224\274\340\320\225\275\316\252\220\275\247\300\216\2757\301\242=\360\366\350;\2020\232\275\234\307}\275\000kh\272\230w\202\275\240\026B\274P\225N<%\323\212=<\304q\275\320\276\307\273\373\323\237=0\n\037=\202-\"\275\021N=\275\257l\231\275P\343x\274\254\252g\275\374\224\327\274\236\353j=#X\230\275D.\n=\253z\006\275[(\010\275T\336\374<\016H\321\274\333\033\214\275*\275\207\275xc\010\274\020.\177\274\250\253]\274\240\317U<\300\320\r<\034\256\240\275\206\242\000=\240\201\307\273\001\211\002\275\373/\227\275fIK=`\032!\274\245,\222=@\0332\273\275\2024\275\377YB\275`\266\372<\325\224\234=\000X\t\271\270\251W<\370P\010\275U\010\240=\036\312\033=\3020\206\275G\372\244=\361\337\205\275\340\207^<\332A?=@=\211;\246cM=\302\177\222\275\310\324\221<\302\245\312\274K\361\037\275&\220n\275`o\332;\360\000\027=\2273\230=,\245\321\274\350\376\205\275\204x\217\274a*\210=^\202{\275}p?\275`Dz; \306\334;6ma=\340\234+<\216\020|\275\273\030\021\275\341\265\002\275V~a=x\226\354<\2703_\275\246i\014\275\367\362\235\2757BF\275\2005 ;\000\241\355:\"\364F=\330\321\333<\240r\017<Z\376\311\274(\321Z\274\330p\213\275\302\275\367\274M\371\213\275\340\314x\275\246\363u=`\331\333<P\321\373\273\257S$\275\000\003Z\273[cD\2753\253}\275r\374X\275\250\245t\275\256I}=h9\350\274\325F\243\275\340\257r\273\240@\253\274\376H4=\264\204\251\274P\2001\274\342:\341\274\320G6\274\351\250\220=\302\332/=.\327\375\274\230\013I\274\3304\272\274\200:\243<4\'\231\275b\366-=\014\226\'=H\372\007\274\252\264\352\274s\344L\275f{c=\030b\232\275\362\360q=T\0274\275pL\221<*\261b=\251\205\206\275\2169\242\275j\2407=\250L\005\274\232@o=Vyk=\003\365\211\275\020\032L<\300\232\261;\264\2108\275\242jd=8\036\333<\235\200\240=&\337\025\275\027/I\275f\352\303\274\210\316\023=T\370\210\274\325\034\200=P\272\267\273\322\2036=Vk\231\275\362\251V\275@\346\243<HK\230<\010\204\216\275\210\244\235\275h\357\207\274~\276I\2750w\007= F\260;\000\223}<,C5\275D\344\366<p\267\324\273\362J\007=\276\317\010=\022I\t=\023}\201=\211m\236\275\3041\027\275X\247\212<\000\250\204\274\234Q\007=Z\035;=\326N\231\274Pe1<3\271\216=P\0347<^\377U\2756\317G=\333\243\207= b\023\273x1\255\274\312Ow=H\252\227<\325\365\225=g\206\212\275\200\326@\274\000\364\267\270\030e\200<\366\254\344\274\005\251%\275\251\214\236\275r\260\177\275\340\330\217<\354x\027\275\313\300\232=\232\007P=\243\343\244\275p\350\222\273\342ws=\306\362\215\275\302<S=\321\326\220=\207\361\212=\200\302\004=\232\335\333\274\022f\344\274\274d@\275,/\220\274\333\373\177\275\366\031\315\274\361\214\217=\326\202h=\356\256\205\275b\201n\275\272\312\316\274&\3406\275\252\316\205\275sH\215=\033\344>\275\324\3770\275\2413\234=\262\351G=\221\317\221=\377DJ\275 <@<\022\324t\275\000t\000\274\342e\246\274\"\307\037=.\3267=\330\212\"<\320-\330;\240\277k<\324\'3\275w\233\207\275l\030\361<\310\0321\274\322\233<=\']\206=\252\335x=\312\232^=\226QG=\275\371\215=t\263\236\2752$[=\260\254B\274\202\017e=b]\005\275\340\341\376<\003\273\244=\376\216G=\222Sz=\010\362\226\274\000\270\323<&\035u\275`\231\370<\241\256\013\275\300\312\307<H\201\260<$f\232<\344ag\275\253r=\275\216\215D\275\344\322\212\275\212iA=\253vp\275\t\260\222=>-v=\276%:=\036 \244\274\254&\032\275\020\212\206\275\226\275\230\275\362\026o=\211\202F\275\241 \210=P\303p\274L\3101=\320\374\014\274\020\362\272\273!H\227=\2351\203=$\177\220<\330\264:<,\350\216\274\000u[\274\0366 \275\2145\277<p\013\036=\222\237\203\275;\360(\275\266)~=\204\221\223<@{s\275\240b\337\273hi\226<q*\234=\360#\021\274Dbo\275\264\327\276<\271\257\207=\320\361\224\273P\324\253;\000ad<\021\261\234\275z`\216\275\006<B=\247\212\003\275R\343N=\361D\231\275\231\353\215=\231T\210=\260\251\320<y\013@\275\242\236\243\275Au-\275@6^<BO\\\275\220\362\367\274\203\014\244=\250\231a<\002D\244\274\250\201W=\214\212j\273\306\311\033\274\2046\217<\300\343\341=\273n9\275\231t\212=\354\246\303\274Ee\236\275\031\020\031\275\323\314\210=3\220\036\2757\217z\274]\3431\275\345o\233=,b\r=\332\202\221=\364\356\210\275\034y*\275CoO=\372\316i=\014,\202\274:\\\002=\'\2143=\311%0=(\266\r\275\372K6\275\255\337\260<`\315^<\004\030\261<P\335l=RkJ=\335\333\335\2746 \"=!$e=r\310\222\273\336\214I=\2700k\274\232S\200\275\032\277}=\231\031[;\300\252\254\272\350-\'=l\213\234\275\272\275\023=\257\262\200\275\336\022\233\274\346[\226\275\350Z\014=C\036\370<\232\025\231\275\356\253?=\320\005\340\273Dj\227=w\n\034\275\211\3519=\212C\356\274\277\236\203\275\364\303\272=\336\303\355\274J\267\005=Ti\211\275\230\242\002<p\236\242\274\231\342\233\272\220td<\316F\233<\370\n\026=\010\2010=\377\2707\274\360\2049\275\245!\266<\000(\177\271\336\364<=\006\376I=\352\006\235\274\340A`;\304\037\203=0\2711=$\360\304<\374\230\223<\037U\016\275\325:\322=\347\206\276<N\rA=\346\2726\275\274\217\315<\303\222\266<M\300\233=\305*5=O\265:<\234\0222=\212\3004=\2612\243= |\322\273\327\374\032\275I\214@\275\360\230\035\274\007RI\275w\372\227\275\020\274|\274}\232\307\274\n\333\032=\215\372\205=\\\320\324\274\2528Q=@\327\251;\267\024\210\275\210\361\205\275\240\020\305\272\020Q\303<\220\224\237\273\3232\240=\263k/=\000gM\275\344\370\225\275\021\347\202=\236\253\224\274\220+\267;y\004\034\275\263_\205=\010\023\205=x\027B:x\374Q\275,\3622=0\254\212;(\356%\274t\'5\275\230\007F\275\315[\021<zp\025;0mp=+-\320;\026\256\314=5t\007<C\316\211\275`=\000\273E\367E\275\216;B=\326\362\321\275\036X\021>\036\\\370\275r\226_\275\021\301l\275\024\261\236\275\200\270|\272\n\023\235\275\322K\324\275Y$\361\275\353\242\201\275\224\"o\273\311\350)=\210c\207<\021x\210<S\354\247\275\302\010\010>\316\306\203\275\357\025\245\275\367H{\275\312c7\275p\245\220=\311\233\356\274\2448\211\274]\030\263<\202\373\226<\354\355&>f\253\315<J\372\363\273\352\270H\275\347\021\234\275X9v\275\n\021\332=\026jK\276h\"t\275 \246M<\253{\031\275\022\222\303\274\372\005c=,8\326<\335G\225\275\226g8=~\300\003=\2175 >\214\215\363\275\312\350\326=F\272b=\303\264v<\330\320=<\276\223\246=T\245\211\274\031\354\303=\t\373\224=\232\275\247:\"\270i=\344\335\310\274VZ\232\275\323\241\242<\017\013\270=\"\320.\275\210\2533\276 \272\207\274\004<L=We\035>\351\276\312\275Y\247\314;\006\275\310\275Ww\223\275g\344\216=\244\274V\274\274Q\251\275\375\030O<\243\"\302=%\313\024\274\315\240\213=\350\021\254\275%\277o<\010\300\367\274\217\325U=\310;X\2746\327s=\376\304U\275W\305\257\275E$\232=/<:\275\002:\345\275\270\002\336\274\020\364\026=\320\230\264\275\332\306\306;\377Z\201=\320<Y\275/\247\010=\266\200/\276N/\004=C\341\206=\016d\031>\001\031%\275\031\013(>\250(\037\275z}\257\274\252\257z\275H}4=\005m5>\032\030n\275\253\234\266=\220o\361=k\250\003>\274\370\366<u.}<\274h\232\274s\231\217=g\022\225<\022\031%<<\245->W\224\r>\370\331\017<#\004\r\275\343A\243=\273M\330=\rO\370\274\205\370\325=\262R,>\017 h\275\357kU\275\203E\001\274\204\255\247<\307\001`=]\325p\275\345\'\312=\305\221\200=\312\002\366=\037\262\336<9\321\220\274\254\205\263;S\274\212\275G\257\265\275\314\336W<b-w\275n\361\242\275\320m\247=\370\255|\275\032\252\263\274[\034\363\274x\261\002>\033@\025\275R\006\315\273^\037\216\275|P\207\274@\243\263=\310\222\014\2749,h<\344\250@<\365_&>\202\261\323=\256Z\002\275\310 \257\275\261\242\000=_\031\206\274jw6\275\254\n\006<t}\003\2766\311\274\273\200Y\275\274\334\313_=\264\301\323=<\353\017\275%\025b\275\355\242y\275Vr\020=\220\313\222<\206vR<\2543\023\276_)\226=\356n8\275\347\355m=\240\210}\275G\324\004\274]\')\276\'\2440<Nu`\275\310\026\247\273\250\352S\275\316\335\332\2752\377\221\275}\342\217=No\025=\010\021\240\275\230d\371\275\024\327H\275\276s%\272\260Dm=\212\270\260\275EB\316<\030:O\2766\321\313;\356\'T\275+\274\241=\203\271A\275\245\276\350<\210\330\332=\373\2317\274P\200\204\272%\034\206\275\207\277\207=@\210T<m5\267\274\304<\272=\264^\023\275\370\303\t\275\261\226K\275\353\376\032=\220\254\227\275\314-\245\273hs\204<\275[\274<j\316E\276\317,\256=\243\314\202=\210hD\275mH1>\263{:\276U\351\252\275\033$\361\274\262\275\000<\021-\204\275\241\262\345=\003\242\007\276\313\341\027\275\264e\200<`&\364\274\364\231\232=\0305\333\274\337\243\007\275\273\204\310=\220\036\362=\202W\014\276\177M\346=U3\214;i\363\372=\353L\244\275\345\227\267\275I\340\013<v\216\251<\366\350+\2755L>>\034\363\301\274\224\\\032\2757\200\326\275\346\201b\272C\222R=\244\020%9\220\361:=\024\n7\2744\250\246=^}\031=\352#\330<\326#\001>\224\021\004\275*\216\304=3n\207=KZ\313\275\026\200C=y\201\351;\261\332\001=\"{$=v\035@= \031*\275`\314\301<\310\376/\2750^\342=|\367\317<\241+\326=\250\252\006\275\231\004\342\275\245C\320=\243\372a\275\2275\230=D\237d\275T\305\264=\034aS=\205\247\270=\365G\211\275\233H\235\2754\021\203<U\005\030=\265\004\255=(\310\332<\357\037h<\325\3732\275P\330\257;8\231\310<\303\r\346\275jn\215;\216)\362<\311\206&\275\352\245\341\274\240\2322\272\362\353m\275\255\240:=\250\021\233<?\312\243\273\222\\\314\274\274\001\300\273[\244\t\274\010\366\277=K\210\244\275\310<\251\275V\010\203\275+m\326<\214zA\275\322q\245<\326k\260;`P\000<\217\0045>Q\037|\275\227\273E\275c\237\275<\251\255k\275R\"I=>\322\374\274\017\254\246\275\"\313u<\206X\033=\2270_=$\2120<\233\306\250\27467\007>\321\324\336=S\332\210=`\037\207\275BP\305<\370X\027>\335v\'=\320\307\320\275\022Rk=\023\002\226\275\203\247\202\275\016g\006=\230\322\200\275\331\016\010=\335\342\004>\242R\014=2\375f\275v\251k\274\037\"K<\344\363\213=z\206\217=Q\\\342=\022 \266\275\300.U=\220K\241=\231!\035\276\252\344\211\275\237`\275=\264\354\270<r\251J\275\321\215\323\275\024\277\270\274\236\021\177\275Q\016K<\217\034 >,q\315=nL\025>C\215\311\275\321R6>(3\023>O(\006>\007\346\262\275\002\222\014>\352\035Y\274A\001\235\2754\215\245\273\004\320e>\'\312\207\275\347\374\234\274\366x!;\201b\324=\313\272\201\275\226\307\216;P\001];\363\036 \276\357\024\263<\301\223\217=\252\340\274:\214\273R>b\257\267=\343\342\024>3%\317=\233\264\376\275\376\005\254=\207\234\003\276QXB\275qg\017\275\0267W<u\002\021\2767\000\225\275\361?)>\367\346\263\272\2210\277=}\243v=\034\204/\274\357\336\210=\257\370\342=3\223\251=\347\372^=\242\340\350<\227\233\003>\224v\202=\355=\342=+\377\235<\377d\347\275\266,%<+K\261<\260\354\003=\315\327\020\275\220>\363\274\227LX\275\3036\250\275\004\2057=\210\267=\275a\025v<\305\215\241=\014\214\271;\266\031\367\274\267\324\305\2755\256\226\275\256\243\263:.\342\225\274(\313F\275}B!=V\214\245;\300\251\227\274\350\350\034=\351/\241\275e\001%=\272-\304\275\312B\334\275\310^0=\207\263\225\275\350d\373\275\227\236\201\2752\256\265=\202\330\236\272*\301\246\275\214e\032\275\352\023\204\275\'s\266\273\263!N=\310\202\243<dv\200=\2761\027=\026\222\277\275\217\321\233\275\"]\322\274\3209\013=\336\234\207=\024\207\032\275\245i\262<`\254\352=\313\006x=\232\367\243=\304 \021=\215\355+=\233\331%\274\200X\"=\227s\265\275w\020\237\275\2413\"<\020A/>\016\320X=\273\325\245:\345\273\351\275\013\333\006\275\003~?>0\334\177\275\225}\'>\331P]\274\313hM=\212\362\025=\324:\371\275\2564\341<\211\273\334=\203\254\250=\352\272\240\275\344\263\201=\200P\263\275\360\235t<\327\356\322\275\023:\">J;b=\024\273/>\254 >\275\272\371\342=n\177\327=\317)\306=\233\320\376\275\202\022\004>T\266\221:\341\213\257\272%\272l<b\207D>\356\234 \276j\321\301=Cf\244\274\357\016\245=SZ\000\275\267\353\240\274\3621\006>RVD\276D\365\216<\373\2629\273EK\036\275Y\356\201>\033\364\002\274\031\004\305=\006\335\210=\017e\212\275Kr\216=k\002\276\275\273\321\'\275P\334\256\275J\272\014<\245%*\275n\226\234=<kD>)q\321=\376~\016>-C\023=\246\347\352;L\315S\275t\230M>,:\232=\206tG>J\252!\274\313\353k>\352\224\206=\033\237\025\275\372\337\006\275\300\316\251\275\343V&>\231.\036\273\330K\277\275\240\340A\274\356Ga\275s;\032\276\352\020C\276D\216\000\274\224_\\\276\222\370\002>\244$h=\002\367!\275\343\305\3719\215%\343\275v4\t\275\265\222\022>$\244\202=\333\270\347\275b\325\261=s\347(=\215S\254\275\010[\247=i\"\232\275\377\345#>xt\263\275\227\0357\276\017L\240\275\207\275\222\274k,\207\275\330\2066=f\213=>\356q\233\275\213\027\374\275\204\0166\275\320\234\363<\214\026\024<\023ZW\275\210Q\005<\232=\266=\371\244\307\274G\214>\276\374gw=9\326x\275|\272\006>(\013\006>\223\357u\275\324\364d\275&>e>\346m\235=mk<\275\023\313\335<\262\007\013>F\354[\275\300\321$\275\037\205j\275\376\321\244\275\372\211\004\276\305\213(>\370&\205\275\244\\g<Vt\010\276sG\315\275\250i$>\341\330\316\275O\365\350=\034\017\t\276\017q%\274\365D&>sJ\200\276a\250\212\273}u\000>\362|g<w\236l\275\202\246\206\275\227\265\210\275\251@\342;\331;\217\275h\365\331=\314\375\210>i\341\022>Y\250\r\276\3068\021>t\250\216>\314\3279>|ED\275n\367d>\251?i\275\334+\177<\263\016\301=h\337\246>\275\216\320\275\2342\220\27537\372=\320V\245=\027Ga\275(U\336=\277\201];\2735\206\276\337\'\240<\263\240\357\274b\332\n<\373\026\376=\252Q\034=Y\003\343=\323\341\000>\2141\351\2756\263\346<x\367\014\276\325g#=\010\275\366<%\034\013>\007\037\363\275\237\205\013\276-\021<>`&\350\275\351h+=\260%\235\275\376\263\025=3\302\301;\005A\247=(GD>\324\000Q=\200\205\321<5\261\204=\344\322\256;\306\272\364\274\034q\345\275En\354\275+\304a>3Pd<\362\006\010<\004H)=\236\355\212=$\276\224\275\377&\030\276\205\311%=wGL\276#\2001\275F\013w>G_F\275\304Ke\275\274\335y\275\3276\325=&\344\272\275\246\r\206=\007\017\312\271\273\365m\275]\375\023>D\006\031\275B\230\207>JKy\272j\266;\275\241\205\004\275\317pp\275ST#\275\374\376\242\275Cu\205\275\003\017\020<\203gG>\254\265\313\275hCd\2753\336\007\275\344\025\374\275\354\221\365=i\317\273=\275*s=\177\231!>\335\207\004\275\n\"\267\275\317\332$;\014\\\227:VK\032>Z\340\031>_\021\277\275\331\372\357;7\021\214>\320\375\372=\2628\316\275\246\"\203\274\207\256\246>\264\004=\276\304\030\227<\312\362\342=__\340\274\366+ \2760\377\212=P\303i\274)n\375<\374\346c\276@\037n\275\217+\245=\032*\246\274G\326\247=\277\266\006\276\002\355c\274\017\367f=\200\252\210\276\253\312\301\2752\210\337=n\223\010>\022.T\275$S\375\274^4U>\377\361\032=\004v\374\275\014\266\023=S\230S>\354jL>\320X\003\276Y\3533>\323\002\232>r\251\n>b\210\327\275\203\0377>\2504,=\177\350\020=g\345^=c\005\247> \250E\276\347\304!\275\336\211\230\275\335\031\222\274\024\243\030\276\010\345\n<\214{\377\275\n{\200\276n*\237=\215\255c\276\252\031\252\2755\002$\274K\266\255=\2143\221=J\027\225=Q\335\331\275\201\272o=\3100\326\275\001\023$>\337\323\035\275v\006w=\242\345T\2759\321\001\276\323\327\333= \324\327\275\32184>\276P@<\242\271\277=\270\232\216<;O:=/\215\335=MT\232=\207\374D=1\250\215=\315+y\275\362\237\002\276C4X\275\306\241\207\2764\007\247>_\353\325=+\235.\276\350\327p<P#\247=\325\013\247=\32459\276\035\312\010\2756\325\212\275M\267%\275nD\252>\316\232L\276\275\215K\2716\027\313\275V\003\331=<\275\275\275\321\000\n>V\370\300\275\272\271$\275\327\202\353\275\025{\336=N*K>\020\350\005>!\222n\273\205\357\007\276\025\3021\276b#\251;\253\232\307<=O(\274/\345 >\233\241p>\332V6\275\177m\315=\313]P\276!\270\006\276\361\372\035=FT\201=\333\306i<\305\3461>Z \030\275$\335\t\275\263\325*\275JR\360<\322\214\210>\337\247\341=(\027\201\275\242\346\\<t4s>\232\2231>\214\331\210\274\026/P>\260A}>O!\233\274\376&}\275\207\303S>\020\3551\276$\034#=\026\024\206\275\307LE\275\027\202\266\273\035\230\032\276\275\204/\275\373\037\233\275\214\352\'\276\272\025\177<\334:-<\016\363\251\275\377\010\027>{\324/\276\225\2509\276\311H\222\275\322\241\325=\365\236b\276q\331\022=\354/\036>\273iL\274\033\267\277\274\343?\022\275N\177%<\016\237\353;\331O\037\276\r&\237< \355\253>y\370\207>\270\353\270\275\356yN=W\007\323\275@\351\345\274\315S\020>A\250\013?i=v\2766vm\275\271\206q\275\004\r\323\275]\020\231\275=\373\331\275\361\251\264\274\020\354\225\276\207\214u\275g\324\336\275{\344\372\275k1\253=\353\240\201=^\004\206=\330\306\265=X\242\013\276\357\t.\275\326^\251\275\233/]>6I\013\276\340\234@>\255\375\207\276X%\201\276./P>%\032t\275\237\202\214>\371\205\270\275Q\210#>}\274m=BK\324=M\324)>\217Vt>\362\346\225\275Q8q>\3661\267\275v\363\234=\312\3268\275\225J\220\276_\306\027>dT\035>\240\307\250\275\340\202\224\273\223\005\257=N\004\236<HHO\276\013\000\335\275\2772\207\2763\0212\276\240R\265=\250<\036\276\365\371]=\224\\\002=\350\014y=\221E\000\276\022-\315=M_S\275\216\314\232\274\211\266\323\275\177\247\323\273\333To>\326L\351=\336+\004\276\003\250\001\276\235-\247\275\\\251\327\275\343i\270\275\230[f=4h\362<1K{>2v\204\276\316l\214<\316|.\276\340\000\031\276\355\247\032<\261\005\304=\342c\200=\347)\216>!y\013\276U\225\214\275\200\313)\275\365Q-\275\034\271\225>S\346m>\301#\230\274\3212\367<\240\340q>\364\276\221>\037\211\230=:\260@>?\300\314>\314\277\301\275\330\231D<\003\223(>\364\\\216\275Q\n\247=*\001\032\275M\037\267\275q\241\326\274\336\335=\276\2435\215\275\2014\252=#\025C\276D8\033\275|\003A=\2409\013\276\315\304P=\364.j\276\245Q\032\276x\247\271\271\312\232\360=\312L\211\276\'\202\006;j\205\037>\315zu\275l.P\272\027I\315<\n\351a<\221\212\214>\2474\032\276\222Qo9\320\261\313>R\305\264>S3@\276\202L\372\274\272iG\276\016PE\275+G\221=\"\236`>N{P\276\202\257X\275P\300\031<\361\240~<\\\351\231\275\303\270\332\274\233Z\205=Y\263\207\2765\344\032\276DQ\311\275ah\337\275\356o\035>\357\205\206\275\244\361m>\035\262\265<3\371\224\275\214\314\251=\275\302\345\274`]\240=\205\311\376\275\007H\277\2749)5\276\274A,<\014p\025>w\003\345=\001@\202>\201\370j\273]\331\263=\0227\211=a\316\">-Vo=\225\201\376=\014\032\220\274P\n\210>f\177\226<\254\362\312=)\216j<\351\301j\276{8.>\237\321P>\001\326\016\2763OX\274{\366\031>\026\270\254\275\2442\320\275\243f\375\275\033\303\244\276U\315\021=\000H\244=\367\021\002\276ul\300<tq\366<\240\370\317=b\232\371<\234+B>x\017\331\275\302I\272==\003\277\275\325\274<=\303*\004>\345\270:=7\2629\275]4\301\273\353\204\210\2765{G\276\357\3560\276f\245}\275-Pj=\313\335\304>\030\244g\276=\027\206=\245Qj\276\235\244C\276`6\031>\357\320\214<0\263]=\302\210\021>C\202\322<\020\327\303\273\240\250\014\275\261K\203\274\225\242\302>\277\017j>z/J\275G\031\004<\315\252\301>\353\245\341>\353cx</af>TW\255>\023\243\375\275O\205%\275[p\300=\270D\206=\016\216\">S\"[\275\341\032%\276\325\346T\274\247\';\276\367\367\321\275\2139W>6s\200\274]\341\230<j\364\247=\010\"\177=h\374\304=\360\001\223\276\035\210\325\275\220\320\357\274\000\352\010=S\333\206\276\251\373\251<\347\006\221>@\024\333\275\344\3159\275J\333\247\274~\314\240=\354\355\235>\312\315\300\276\274\304\316=b\232\346>X\236\274>\010\314X\276\364I#>\215\275\025\276t4\321\275vU\006>\365\355r>\025\300\222\276\271\303\265<\033\341\272\275\311\\d=U\315\220\275\364\326y\275*Z&>\272\360\036\276We\005\2756\357\355\2750A\321\275\021\226\017>1\262\264\274\350,]>\357\200\251;\234!\317\275\344\225\r>#\377\202\275\321z\031>P\223\210\275\204\367\202\272\324\270\002\276\n\353\216=\312\360z=\325|k;+\027\037>\362c\234<\226\'\305\275\343B3;hti>\177\357p\274\224\214U>\307D\231\275\371\314\030>\230\366\205=\233:\216=\030\036\n\275\275\277\255\276\262\361\010=Y\356\207>\016\377\242\275\330\355\373;\034\0333>\300\224\355\275\177;G\276S\261t\275\362B\204\276\376[F>\0008\244=U\\\231\276\t\350\002=&\367W\275\331\257_>\210\0357\275{ \377<O\025\021\275\313\"T\275\262\317\200\275\220M\020\276\375\2512>Ta\350=\001Z\202\274v1n;#\266R\276\035\337+\276UC\001\276\360\2461<\246\374\200\274\273-u>x\003\243\276\316K\235<\371JN\276\244~\373\275[\"X>\036\214O\276\217\004\000>\017\335\240>\2059>\275\261]\317\273t\306\224=\"\325\253=\234wo>\005\013{=6q\333=\274-\201:\031`\202>\017\276\352>\247\325\211\275\345\370\254=f\r\177>@\2312\276 S\357;\365\312,>B|\326=\347\352t>/\337*\271W\366.=\000\030\020\276\r\212:\276N\227\027\276oyq=yF\333\275\257`\214\275\311\317\336=\330\231\361\274(G\331<\237\346\013\276\377\031$\275\224\352\210\275}\034\322\273\034\355\276\276\270\230\336\275\261#k>N\224\024\2755`l<\210\367\032<\010i{=\000\304\226>y\357\233\276\355#t>)\244\234>\221f6>\013\204B\276~\253\317\274J\304\251\275b\006\212=y\362Z>\270}\200>\312\205Y\276\250%\256=\343\024,